#include <stdint.h>

#include <stddef.h>

const size_t sub_0003_model_data_size = 10112;

__attribute__((aligned(16))) const uint8_t sub_0003_model_data[10112] = {
0x00, 0x00, 0x00, 0x00, 0x00, 0x00, 0x00, 0x00, 0x00, 0x00, 0x00, 0x00, 0x00, 0x00, 0x00, 0x00, 
0x00, 0x00, 0x00, 0x00, 0x00, 0x00, 0x00, 0x00, 0x00, 0x00, 0x00, 0x00, 0x00, 0x00, 0x00, 0x00, 
0x00, 0x00, 0x00, 0x00, 0x00, 0x00, 0x00, 0x00, 0x00, 0x00, 0x00, 0x00, 0x00, 0x00, 0x00, 0x00, 
0x00, 0x00, 0x00, 0x00, 0x00, 0x00, 0x00, 0x00, 0x00, 0x00, 0x00, 0x00, 0x00, 0x00, 0x00, 0x00, 
0xea, 0xfe, 0xff, 0xff, 0xff, 0x0e, 0xfb, 0xa6, 0x6a, 0x2a, 0x06, 0x00, 0x00, 0x00, 0x00, 0x0e, 
0xfb, 0xa6, 0x6a, 0x2a, 0x2b, 0xff, 0xff, 0xff, 0xff, 0x0e, 0xfb, 0xa6, 0x6a, 0x2a, 0xac, 0xfe, 
0xff, 0xff, 0xff, 0x0e, 0xfb, 0xa6, 0x6a, 0x2a, 0x00, 0x00, 0x00, 0x00, 0x00, 0x00, 0x00, 0x00, 
0x30, 0x1b, 0x55, 0x01, 0xac, 0xf2, 0x00, 0x00, 0xf8, 0x79, 0x80, 0x00, 0xa1, 0x38, 0xfb, 0x2c, 
0xff, 0x1f, 0x1a, 0xa5, 0x83, 0x1b, 0xe0, 0x91, 0x78, 0x2a, 0xf9, 0xa1, 0xab, 0x21, 0x0c, 0xe1, 
0xfd, 0x7f, 0xb4, 0x77, 0x29, 0x13, 0x5f, 0x20, 0xf4, 0xfc, 0xbf, 0xcf, 0x35, 0x0e, 0xce, 0xde, 
0xa0, 0x0f, 0x40, 0x20, 0x00, 0x80, 0xa9, 0x10, 0x00, 0xbd, 0x95, 0xe8, 0xd9, 0x21, 0x02, 0xd9, 
0x68, 0x48, 0xff, 0x7f, 0x88, 0x83, 0x39, 0x50, 0xa7, 0xd0, 0xe8, 0xff, 0x63, 0x71, 0x6f, 0xeb, 
0x12, 0xb7, 0x0f, 0xff, 0x01, 0x00, 0x90, 0xc8, 0x50, 0x20, 0xb0, 0x04, 0x38, 0x0d, 0xda, 0x89, 
0xd1, 0x17, 0xe1, 0x1f, 0x19, 0x3b, 0x42, 0x58, 0xa1, 0x23, 0xe4, 0xff, 0xf7, 0xff, 0x13, 0x73, 
0x37, 0xfa, 0x1b, 0x28, 0x03, 0x00, 0xbb, 0x20, 0x20, 0x31, 0x0d, 0x01, 0x3e, 0xb4, 0x1c, 0x3e, 
0x46, 0xf4, 0x00, 0x98, 0x75, 0xff, 0x8f, 0x50, 0xf2, 0xdf, 0x83, 0xd2, 0x81, 0x49, 0xfc, 0xff, 
0x73, 0xb4, 0x40, 0xc5, 0x47, 0x3d, 0xe1, 0x01, 0x30, 0x40, 0x08, 0x01, 0x20, 0x8a, 0x39, 0x63, 
0x06, 0x8e, 0x83, 0x4c, 0x52, 0x51, 0xe7, 0xff, 0xc3, 0xce, 0x13, 0xfc, 0x9f, 0xce, 0xff, 0xff, 
0x43, 0x44, 0x03, 0xc0, 0xa5, 0x56, 0x02, 0x90, 0xc0, 0x56, 0x31, 0x1d, 0x20, 0x29, 0xe8, 0x36, 
0xc9, 0xb1, 0xd8, 0xaa, 0x11, 0xc1, 0x7f, 0x59, 0x52, 0xc6, 0x4f, 0xd5, 0x9a, 0xac, 0xff, 0x07, 
0xfe, 0x7f, 0xbc, 0x68, 0x81, 0x55, 0x27, 0xa1, 0xc2, 0x00, 0x00, 0x5c, 0x00, 0x20, 0x56, 0x0d, 
0xe0, 0x1d, 0x8b, 0x49, 0x68, 0x80, 0x25, 0x4a, 0x39, 0xa2, 0xfa, 0x7f, 0xf8, 0x6d, 0x6d, 0x1e, 
0xa7, 0x45, 0xff, 0xcf, 0xfc, 0xdf, 0x0d, 0x3c, 0xdf, 0x28, 0xa9, 0x0f, 0x00, 0x00, 0x01, 0x7a, 
0x93, 0x06, 0x00, 0x06, 0xb6, 0x79, 0xf5, 0xd7, 0x54, 0xe8, 0xe1, 0xff, 0x27, 0xf8, 0x49, 0x32, 
0x87, 0xb8, 0x27, 0xfc, 0x7f, 0x4f, 0x49, 0xab, 0x28, 0xe3, 0xef, 0xff, 0x00, 0x00, 0x94, 0x19, 
0x00, 0xc0, 0xc1, 0x0a, 0x2c, 0xb7, 0x45, 0xb1, 0x67, 0xd7, 0x10, 0xa8, 0x03, 0xff, 0xd1, 0xc0, 
0x43, 0xcd, 0x33, 0xfc, 0xd2, 0xf2, 0xff, 0x8d, 0xcb, 0x43, 0x4a, 0x46, 0x8d, 0xfd, 0x3f, 0x00, 
0x90, 0x0b, 0x00, 0x90, 0x72, 0x03, 0xf8, 0x01, 0x81, 0x8a, 0xe9, 0x4a, 0x3c, 0xb0, 0x25, 0x40, 
0xff, 0x7f, 0x79, 0x01, 0x2d, 0x84, 0x2e, 0x98, 0xff, 0x3f, 0x77, 0x6a, 0x69, 0x6f, 0x58, 0xaf, 
0x0f, 0x40, 0x55, 0x00, 0xe0, 0x35, 0x8d, 0x00, 0x80, 0x4f, 0xea, 0x29, 0xbb, 0x35, 0x02, 0xf8, 
0x7f, 0xe1, 0x5d, 0x6d, 0x3b, 0x24, 0xb5, 0x31, 0xfa, 0xff, 0x2f, 0xa9, 0x2e, 0xfd, 0x32, 0x83, 
0xce, 0xf0, 0x0f, 0x00, 0xd0, 0xaf, 0x00, 0x00, 0x60, 0xfa, 0x40, 0x10, 0x7a, 0x4b, 0x54, 0x8f, 
0xe2, 0x05, 0x84, 0x7f, 0xbe, 0x85, 0xe2, 0x16, 0x2a, 0xef, 0xb0, 0x92, 0xfe, 0x7f, 0xfd, 0xff, 
0xe2, 0x90, 0x8a, 0xd3, 0x06, 0x04, 0x00, 0xae, 0x03, 0x00, 0x0d, 0x91, 0xea, 0x1b, 0x46, 0xd0, 
0xa1, 0x99, 0x43, 0x26, 0x00, 0x8f, 0x0f, 0xb5, 0x35, 0x83, 0x0c, 0xeb, 0xff, 0xed, 0x52, 0x5f, 
0xb0, 0x70, 0x52, 0xef, 0xff, 0xff, 0x00, 0x53, 0x0b, 0x40, 0x8c, 0x24, 0x00, 0x80, 0x9e, 0x4a, 
0xcd, 0x7d, 0x1e, 0xe5, 0xa6, 0x66, 0x0b, 0xd9, 0x0b, 0x1c, 0xb3, 0x6a, 0x09, 0xff, 0xbf, 0x2c, 
0x25, 0x5c, 0x15, 0x02, 0xfe, 0xff, 0x1f, 0x34, 0x1d, 0x00, 0x9a, 0xb4, 0x01, 0x10, 0x00, 0xe4, 
0x30, 0xfe, 0x3a, 0x7f, 0x85, 0xe1, 0xdf, 0x45, 0xd6, 0x37, 0x93, 0xb1, 0x4a, 0xb7, 0x36, 0x4f, 
0xf8, 0x7f, 0xc0, 0xa4, 0x37, 0x59, 0x73, 0xf5, 0xff, 0x41, 0xbf, 0xf9, 0xa3, 0x19, 0xdf, 0xc9, 
0x02, 0x00, 0x55, 0x02, 0x00, 0x48, 0x49, 0x00, 0xfe, 0xc0, 0xa8, 0x3e, 0xb6, 0xdb, 0xbd, 0xb2, 
0xb1, 0xfb, 0xff, 0x65, 0xeb, 0xe4, 0x04, 0xe2, 0x78, 0xf0, 0xff, 0xe3, 0x93, 0xf7, 0x4b, 0x8d, 
0x0f, 0x80, 0x58, 0x00, 0xc0, 0x6d, 0x06, 0x10, 0x85, 0xfe, 0x6d, 0xde, 0x21, 0xce, 0x39, 0xd2, 
0xfa, 0xff, 0xb1, 0x11, 0x2a, 0x29, 0xca, 0x15, 0xf2, 0xfd, 0x3f, 0x72, 0x52, 0xbc, 0xdb, 0xc7, 
0xff, 0x87, 0xa1, 0x03, 0x00, 0xe1, 0x4a, 0x00, 0x40, 0x3e, 0xf9, 0x80, 0x38, 0xbb, 0x1d, 0xe7, 
0x17, 0x10, 0xfc, 0xc3, 0x0f, 0x24, 0x11, 0x4e, 0xf2, 0xfd, 0x3f, 0x3e, 0x71, 0xb2, 0xff, 0x02, 
0x08, 0x99, 0xfe, 0x3f, 0x00, 0x4c, 0x2a, 0x00, 0x00, 0x6f, 0x7c, 0x42, 0xb6, 0x5e, 0x15, 0xe2, 
0x8c, 0x1f, 0x00, 0xc0, 0xe7, 0xab, 0x19, 0x7d, 0x08, 0xcd, 0xec, 0x48, 0x20, 0xfc, 0x3f, 0xff, 
0x4f, 0x4c, 0x7e, 0xa4, 0x2b, 0x58, 0x9c, 0x18, 0x0f, 0x10, 0x15, 0x00, 0x00, 0x28, 0x04, 0x00, 
0x20, 0x00, 0x4f, 0x3b, 0xbf, 0xcc, 0xb4, 0x20, 0x26, 0xfd, 0x7f, 0x6a, 0x4d, 0x0d, 0x23, 0x98, 
0x60, 0x99, 0x55, 0xff, 0x3f, 0x79, 0xa3, 0x7a, 0x09, 0x00, 0xc4, 0x3f, 0x00, 0x00, 0x02, 0x01, 
0x00, 0x8a, 0x0f, 0xff, 0x80, 0x91, 0xe7, 0x7f, 0xf6, 0xae, 0xcf, 0x1c, 0xfb, 0x7f, 0x99, 0x99, 
0xf9, 0x2b, 0x07, 0x0a, 0x36, 0xfa, 0x7f, 0x02, 0xb8, 0x14, 0x00, 0x00, 0x64, 0x8c, 0xbf, 0x06, 
0x42, 0xf9, 0x0b, 0x7b, 0x61, 0x41, 0x80, 0x17, 0x45, 0x2d, 0x81, 0x36, 0x02, 0x8f, 0xf2, 0xc8, 
0xff, 0x83, 0xff, 0x57, 0x5d, 0x69, 0x9b, 0x30, 0x5e, 0x7e, 0xf6, 0x07, 0x28, 0x23, 0x00, 0x10, 
0x14, 0x09, 0x10, 0xb1, 0x5d, 0x88, 0x80, 0x05, 0x60, 0x4e, 0x6b, 0xd2, 0xff, 0x07, 0x42, 0xae, 
0x4f, 0xf2, 0xde, 0xd6, 0xfe, 0xff, 0xdf, 0x27, 0xf7, 0x62, 0x3c, 0x2a, 0x19, 0xdf, 0xff, 0x00, 
0x00, 0x1c, 0x09, 0x00, 0x2c, 0x9a, 0xc4, 0x46, 0xd4, 0x21, 0x6c, 0x48, 0x93, 0xf0, 0xef, 0x79, 
0x73, 0x67, 0xad, 0x8b, 0x32, 0x6e, 0x8a, 0xff, 0x27, 0xff, 0x6f, 0xd2, 0x2e, 0xfb, 0xc0, 0x98, 
0xac, 0x06, 0x80, 0xd2, 0x05, 0x80, 0x50, 0x6f, 0x02, 0x3c, 0x10, 0xc3, 0xda, 0x38, 0x55, 0xe3, 
0xe9, 0x98, 0xf8, 0xff, 0x92, 0x3e, 0x32, 0x8a, 0x3a, 0x84, 0xc3, 0xfc, 0x7f, 0x68, 0x6a, 0x5c, 
0x18, 0x73, 0x83, 0xef, 0x03, 0x00, 0x80, 0xc2, 0x26, 0xf3, 0x05, 0x80, 0x00, 0xa2, 0x4d, 0x7a, 
0xd3, 0x83, 0x51, 0xfb, 0xf5, 0xff, 0x03, 0xb2, 0x60, 0x5d, 0x32, 0x21, 0xa9, 0x64, 0xff, 0xdf, 
0x01, 0xa1, 0xd7, 0x70, 0x84, 0xce, 0x7f, 0x00, 0x00, 0xdf, 0x00, 0x05, 0x00, 0x4d, 0x90, 0xa6, 
0x00, 0x87, 0xc5, 0x45, 0x23, 0x18, 0xfe, 0x39, 0x50, 0xab, 0x27, 0x98, 0x68, 0x49, 0xa2, 0xff, 
0x97, 0xff, 0x57, 0x2e, 0x23, 0xa3, 0x7b, 0xe3, 0x32, 0x01, 0x00, 0x4a, 0x01, 0xc0, 0xb7, 0x06, 
0xc0, 0x17, 0x38, 0xd4, 0x30, 0x6f, 0x78, 0xdd, 0xf8, 0xff, 0x21, 0x69, 0xa4, 0x82, 0x94, 0xd3, 
0xa9, 0xfe, 0x7f, 0x9d, 0x90, 0x94, 0x31, 0x58, 0x98, 0x07, 0x78, 0x56, 0x00, 0x00, 0x0b, 0x54, 
0x02, 0xb8, 0x50, 0x24, 0xa3, 0x77, 0xce, 0x53, 0x7d, 0xf5, 0xff, 0xe1, 0x22, 0x8b, 0xb4, 0x38, 
0x49, 0xe4, 0xff, 0x3f, 0x33, 0xff, 0x7f, 0xef, 0xe9, 0x7f, 0xf0, 0x2d, 0x20, 0x90, 0x15, 0x71, 
0x00, 0x10, 0x6e, 0x89, 0x01, 0xa8, 0x74, 0x95, 0x4a, 0xff, 0x1f, 0x69, 0x61, 0xfc, 0x7d, 0xfa, 
0x65, 0x8b, 0x21, 0xff, 0xdf, 0x56, 0x2f, 0x05, 0x48, 0xf7, 0xff, 0x39, 0x64, 0x02, 0xcc, 0xa2, 
0xb1, 0x01, 0x40, 0xa9, 0x02, 0x00, 0x46, 0x21, 0x00, 0xef, 0x12, 0xe2, 0x4e, 0xc7, 0x52, 0x62, 
0x98, 0xe6, 0xff, 0xd9, 0xbc, 0x9f, 0xec, 0x9e, 0xcd, 0x06, 0xff, 0x2f, 0x4f, 0xb4, 0x14, 0x00, 
0x54, 0xcb, 0x43, 0xb8, 0x15, 0x00, 0x60, 0xaa, 0x07, 0x00, 0x0a, 0xc0, 0x2b, 0x00, 0xc7, 0xa5, 
0xad, 0x02, 0xdd, 0xff, 0x43, 0xa1, 0xa6, 0x17, 0x61, 0xbe, 0x00, 0xff, 0x9f, 0x81, 0x44, 0x7e, 
0x4a, 0x5a, 0xc1, 0x8c, 0xff, 0x00, 0x00, 0x36, 0x0e, 0x00, 0x00, 0x61, 0x53, 0x24, 0x3b, 0x4d, 
0xbb, 0x4f, 0xcc, 0x40, 0x84, 0x7f, 0xb6, 0x12, 0x11, 0x4d, 0x3d, 0x84, 0xab, 0x66, 0xfd, 0x3f, 
0xfd, 0xff, 0x65, 0xee, 0x43, 0xab, 0xb1, 0x10, 0x00, 0x16, 0x15, 0x00, 0x2c, 0x4b, 0x06, 0x1c, 
0x89, 0xef, 0x7d, 0xf9, 0x2e, 0xc0, 0x2b, 0xc2, 0x2d, 0x31, 0x17, 0xdc, 0xbd, 0x80, 0x90, 0xfc, 
0xbf, 0xff, 0xdf, 0x05, 0x91, 0x19, 0x04, 0xe0, 0x94, 0x07, 0xd1, 0x2e, 0x00, 0x00, 0x34, 0x10, 
0x00, 0xd4, 0x3c, 0x60, 0xdd, 0x6f, 0xef, 0x49, 0x2e, 0x6b, 0xd9, 0xff, 0x37, 0xb9, 0xaa, 0x69, 
0x28, 0x6d, 0x61, 0xfd, 0x7f, 0x52, 0xc6, 0xe5, 0xf7, 0xc2, 0xfb, 0x07, 0x20, 0x78, 0x96, 0x00, 
0x00, 0xa4, 0x15, 0xad, 0xe2, 0x0b, 0x43, 0x3a, 0x96, 0x48, 0xc0, 0xbf, 0x74, 0x5a, 0xfd, 0xd3, 
0x30, 0x26, 0x34, 0xdc, 0xfe, 0x1f, 0xf8, 0xff, 0xb3, 0x87, 0xea, 0x05, 0x60, 0x22, 0xa6, 0x01, 
0x00, 0x27, 0x01, 0x00, 0x20, 0xef, 0x00, 0x0f, 0x10, 0x6d, 0xa5, 0xca, 0x1a, 0x70, 0xab, 0xda, 
0xff, 0xef, 0x4a, 0xca, 0x82, 0x78, 0x91, 0x5a, 0x2b, 0xff, 0xff, 0x00, 0xe2, 0x04, 0x00, 0xe0, 
0x14, 0x05, 0x80, 0x59, 0x0d, 0xb9, 0x23, 0x88, 0x16, 0x2d, 0x63, 0x26, 0x00, 0x3a, 0x97, 0x97, 
0x53, 0x2a, 0xe3, 0xff, 0xef, 0xa9, 0xe1, 0xad, 0x84, 0x1b, 0x44, 0x48, 0xff, 0xff, 0x0f, 0x9a, 
0x03, 0x00, 0x00, 0x68, 0x00, 0x40, 0x45, 0xbd, 0x35, 0x4e, 0x54, 0x55, 0xa8, 0x06, 0x32, 0xe0, 
0x9f, 0x4d, 0xd2, 0x1e, 0x85, 0xf6, 0x16, 0xfd, 0xff, 0x00, 0xb0, 0x06, 0xb6, 0xae, 0xa8, 0xe3, 
0xff, 0x01, 0xc0, 0x53, 0x81, 0x00, 0x34, 0x7a, 0x00, 0x0f, 0x10, 0x1c, 0xac, 0x36, 0x49, 0x0b, 
0x61, 0xc8, 0xca, 0xff, 0x27, 0xec, 0xcd, 0xe1, 0xb5, 0xb1, 0x34, 0xd2, 0xfc, 0xff, 0x38, 0x80, 
0xcc, 0x8e, 0x39, 0xf0, 0x5f, 0x40, 0xfe, 0x01, 0xa0, 0xc1, 0x5c, 0x00, 0x80, 0xc1, 0x6b, 0x01, 
0xb5, 0xe4, 0xef, 0xc9, 0xf2, 0xff, 0x83, 0x74, 0x94, 0x86, 0xa5, 0xcb, 0xe1, 0xff, 0x1f, 0x54, 
0x00, 0xbc, 0xbd, 0x09, 0x25, 0xf9, 0xa7, 0x00, 0x58, 0x37, 0x14, 0x00, 0xa8, 0xa3, 0xe4, 0x1f, 
0x9e, 0x84, 0x40, 0x55, 0x7c, 0x3d, 0xc0, 0x3f, 0x38, 0x83, 0x47, 0x1a, 0x3b, 0xfe, 0xff, 0xcd, 
0xc4, 0x7c, 0x22, 0x2b, 0x2d, 0xa7, 0xff, 0x07, 0x80, 0x85, 0x07, 0x00, 0x82, 0xa0, 0x3a, 0x8a, 
0x61, 0x22, 0x6a, 0x48, 0x12, 0x93, 0xe0, 0x1f, 0xe5, 0x33, 0x0b, 0x40, 0x96, 0xab, 0xfd, 0xff, 
0xe2, 0xff, 0x57, 0xe0, 0x62, 0x98, 0x13, 0xf2, 0x0b, 0x5c, 0x1d, 0x04, 0x60, 0x06, 0x2f, 0x00, 
0x04, 0xc3, 0x31, 0xf5, 0xde, 0x8f, 0x4b, 0xea, 0xfe, 0x9f, 0x4b, 0xea, 0x70, 0x82, 0xb9, 0xb4, 
0x2b, 0xfe, 0x3f, 0x01, 0x85, 0xdc, 0x2a, 0x43, 0xfc, 0x07, 0xad, 0x06, 0x00, 0xde, 0x8a, 0x00, 
0xa0, 0xcf, 0xf8, 0xb2, 0x7b, 0x12, 0x10, 0x4c, 0x12, 0xa9, 0x8d, 0xc8, 0xe8, 0x87, 0x7f, 0xbd, 
0x46, 0x3d, 0x89, 0x02, 0x1e, 0x73, 0x4b, 0xfc, 0x3f, 0xf8, 0xff, 0xc6, 0xd8, 0x66, 0xd6, 0xe0, 
0x94, 0xa6, 0x04, 0x80, 0x84, 0x02, 0x80, 0xac, 0x52, 0x80, 0xcf, 0x4b, 0x06, 0x51, 0x1b, 0x83, 
0xc5, 0xba, 0xfc, 0xff, 0x67, 0xb4, 0x1c, 0x37, 0x56, 0x72, 0xf5, 0xff, 0x0b, 0x33, 0x77, 0xea, 
0x6f, 0xea, 0x01, 0xa2, 0x10, 0x00, 0x6c, 0x5a, 0x01, 0x80, 0xd3, 0x4b, 0x6b, 0xb3, 0xfc, 0xf4, 
0x26, 0x31, 0x53, 0x78, 0xc8, 0x10, 0x31, 0xa5, 0xf0, 0xff, 0x82, 0xb9, 0x75, 0x1e, 0xc5, 0xe5, 
0xfd, 0xff, 0x3f, 0x50, 0x10, 0x00, 0xdc, 0xf8, 0x00, 0x40, 0xf0, 0x4f, 0xf9, 0x4c, 0xbc, 0xc0, 
0xb4, 0x04, 0xfe, 0x57, 0x0b, 0x2b, 0x7c, 0x85, 0x66, 0x8b, 0x7f, 0x57, 0xfe, 0x3f, 0xcc, 0x75, 
0x54, 0x8a, 0x40, 0xed, 0xfe, 0x1f, 0x04, 0x94, 0x4a, 0x69, 0xbd, 0x03, 0x40, 0x88, 0x00, 0xc0, 
0x57, 0x07, 0xe0, 0x09, 0x0b, 0x6c, 0xa0, 0x80, 0x70, 0x21, 0x9b, 0xff, 0x5f, 0xe2, 0x76, 0x7e, 
0xe5, 0x7e, 0x85, 0x0f, 0xfe, 0xff, 0x69, 0x82, 0x40, 0x7f, 0x30, 0x74, 0x1e, 0xe0, 0x24, 0x01, 
0x80, 0xb1, 0x63, 0x00, 0xb0, 0xce, 0xd4, 0x43, 0x18, 0xbc, 0x57, 0x25, 0xa9, 0x23, 0x18, 0x80, 
0x3a, 0x51, 0xe0, 0xff, 0xbb, 0x37, 0xd4, 0xaa, 0x02, 0xd4, 0xff, 0xff, 0x7f, 0xd8, 0x62, 0x00, 
0xd8, 0x95, 0x2e, 0x00, 0x04, 0x52, 0x8f, 0x51, 0x75, 0x81, 0x4a, 0x8f, 0x78, 0x11, 0x07, 0xaa, 
0x90, 0x5f, 0x09, 0x61, 0xf8, 0x97, 0x5e, 0x0c, 0xa9, 0x37, 0x87, 0xff, 0x57, 0xc8, 0x24, 0x9d, 
0xfe, 0x4e, 0xfb, 0xfe, 0x3f, 0x00, 0xcc, 0x11, 0x00, 0x04, 0xd6, 0x06, 0xf0, 0x80, 0x51, 0xaa, 
0xe6, 0x54, 0x89, 0xf8, 0xe4, 0x22, 0xff, 0x7f, 0x16, 0x95, 0x0a, 0x92, 0xe0, 0x83, 0x19, 0xa8, 
0xff, 0x1f, 0xc5, 0x1c, 0xb9, 0x7b, 0x52, 0x1e, 0xe0, 0x12, 0x00, 0xa0, 0x5b, 0x3e, 0x00, 0x18, 
0xa7, 0xff, 0x0c, 0xc0, 0xe7, 0xda, 0xcd, 0x14, 0x64, 0x6a, 0xf8, 0x84, 0xca, 0xfb, 0xfe, 0x7f, 
0x3b, 0xc4, 0xc1, 0x4b, 0xc6, 0xe6, 0xff, 0xdf, 0xf3, 0xc7, 0xf9, 0x17, 0x00, 0xd8, 0xb7, 0xf7, 
0x5e, 0x0d, 0x00, 0x70, 0xfd, 0x65, 0xbe, 0xdf, 0x57, 0x92, 0x15, 0xe3, 0x01, 0x30, 0x6a, 0x95, 
0x87, 0x7f, 0x95, 0xb2, 0xd2, 0x53, 0xf5, 0xff, 0x65, 0xb5, 0x59, 0x5d, 0xcb, 0xf5, 0xff, 0x01, 
0xe0, 0xda, 0x80, 0xb7, 0x1d, 0x00, 0xfe, 0x3a, 0xe9, 0xa8, 0x29, 0x6d, 0x8d, 0xd3, 0xe8, 0x9f, 
0xd6, 0xfb, 0xac, 0x35, 0x80, 0xff, 0x8e, 0x06, 0x03, 0x12, 0x58, 0x43, 0xff, 0x1f, 0x42, 0x44, 
0x6e, 0x4a, 0xff, 0xbf, 0x06, 0x21, 0xd9, 0x8f, 0x2f, 0xae, 0x7d, 0x00, 0xaa, 0x06, 0x80, 0xf1, 
0x55, 0x00, 0x00, 0xcc, 0xec, 0x48, 0xd7, 0x47, 0x13, 0x4f, 0xff, 0xff, 0xd1, 0x2a, 0x07, 0x29, 
0x7e, 0x2e, 0xdc, 0xf1, 0xff, 0xa7, 0x0f, 0x07, 0x48, 0x08, 0xff, 0x04, 0xe4, 0x00, 0x50, 0x9b, 
0x09, 0x00, 0xef, 0x28, 0xfe, 0x70, 0x8e, 0xb8, 0x9e, 0xbc, 0xa3, 0xbb, 0x07, 0xb5, 0x57, 0x91, 
0x35, 0xfc, 0x2f, 0x08, 0x08, 0x24, 0xf5, 0xfa, 0x7f, 0xc0, 0xe6, 0x2f, 0x2b, 0x8a, 0xf3, 0xff, 
0x00, 0x90, 0x67, 0x04, 0x00, 0xb0, 0x2b, 0xa4, 0xb7, 0x40, 0xb2, 0xb2, 0xaa, 0x29, 0xf9, 0xd1, 
0x00, 0x4f, 0x2a, 0x2d, 0x60, 0xf3, 0xbc, 0x1e, 0xd2, 0xff, 0x93, 0x51, 0xda, 0x35, 0xa8, 0xc6, 
0xff, 0x7f, 0x01, 0x71, 0x01, 0x00, 0xec, 0x3b, 0xba, 0x5a, 0x83, 0x88, 0xe7, 0x69, 0x3d, 0xf4, 
0x3d, 0x10, 0xa8, 0xfa, 0x83, 0x50, 0x14, 0x63, 0xe4, 0xfd, 0x7f, 0x29, 0xf9, 0x10, 0x66, 0x09, 
0xff, 0x7f, 0x5f, 0xbc, 0x4f, 0xa3, 0x35, 0xee, 0x3f, 0x00, 0x00, 0xf1, 0x57, 0x41, 0x0d, 0x08, 
0xe0, 0x4a, 0x5b, 0x30, 0x51, 0xb2, 0x36, 0xe0, 0x7f, 0x85, 0xea, 0x6c, 0xf1, 0x68, 0xea, 0xe3, 
0xca, 0xff, 0x3f, 0x69, 0x9c, 0xd3, 0xb7, 0xfa, 0x7f, 0x00, 0x80, 0x4d, 0x04, 0x00, 0xd2, 0xec, 
0x40, 0x26, 0x73, 0x70, 0x02, 0x5a, 0xe1, 0x43, 0x02, 0xf0, 0x24, 0x1c, 0xd5, 0x23, 0x8e, 0xfa, 
0xff, 0xbf, 0x9e, 0x36, 0x98, 0xb6, 0xa0, 0xb9, 0xf3, 0xff, 0x0f, 0xf0, 0x25, 0x00, 0x00, 0xb0, 
0x4a, 0x00, 0xa0, 0x3b, 0x83, 0x72, 0x91, 0xbc, 0xc6, 0x79, 0x9d, 0xdb, 0x05, 0x8f, 0x27, 0x72, 
0x87, 0x7b, 0x24, 0x3b, 0xfc, 0x3f, 0xb8, 0x4c, 0xbc, 0xd9, 0xbe, 0x7b, 0xf8, 0xff, 0xdd, 0xda, 
0x2d, 0x01, 0x2b, 0x24, 0x96, 0xe1, 0x1f, 0x00, 0x80, 0x49, 0x00, 0x80, 0xac, 0x07, 0xff, 0xad, 
0xc9, 0x59, 0x9d, 0x6f, 0xb0, 0x73, 0xe2, 0xa9, 0xfe, 0x7f, 0xa9, 0x6f, 0xeb, 0xef, 0x14, 0xea, 
0xff, 0x8b, 0x34, 0x26, 0x34, 0xc2, 0x38, 0x40, 0xa0, 0x1a, 0x00, 0x80, 0x08, 0x05, 0xf0, 0x10, 
0x46, 0xd0, 0x43, 0xc5, 0x19, 0x03, 0xff, 0x7f, 0x77, 0x4c, 0x11, 0xca, 0xf3, 0x2b, 0x28, 0xfe, 
0xff, 0x03, 0x18, 0x35, 0x10, 0xa8, 0xb3, 0x06, 0xc0, 0x9e, 0x45, 0x9d, 0x6d, 0x79, 0x08, 0x50, 
0x8d, 0x3f, 0x38, 0xeb, 0x91, 0xb6, 0x4a, 0x6d, 0x54, 0x2b, 0xe1, 0xff, 0xf7, 0x68, 0xab, 0x2f, 
0x3d, 0xc7, 0xff, 0x3b, 0xd1, 0x31, 0xf4, 0x1d, 0xcf, 0x7f, 0x00, 0x00, 0x56, 0x00, 0x00, 0xc9, 
0x28, 0x24, 0xa4, 0x03, 0xe6, 0xdc, 0x7f, 0x48, 0x84, 0x7f, 0x52, 0x32, 0x84, 0xca, 0xc9, 0x73, 
0xd3, 0x26, 0xfe, 0x3f, 0xf6, 0xff, 0xff, 0xb4, 0x08, 0x29, 0x49, 0x46, 0x09, 0x40, 0x26, 0x02, 
0x00, 0xd1, 0x31, 0x80, 0x07, 0xa2, 0x81, 0xeb, 0x64, 0x51, 0xd8, 0x9a, 0xff, 0x6f, 0x76, 0x16, 
0x57, 0xa6, 0xda, 0x2a, 0xdd, 0xff, 0xff, 0x00, 0x57, 0x07, 0x00, 0x14, 0x5a, 0x87, 0xf8, 0x98, 
0x90, 0x47, 0x16, 0x91, 0x1f, 0x00, 0x70, 0x08, 0x03, 0x84, 0x16, 0x8a, 0x32, 0x1f, 0x00, 0xff, 
0x7f, 0xc0, 0x90, 0x8b, 0x4d, 0x20, 0x65, 0xfa, 0xff, 0xff, 0xa0, 0xc8, 0x00, 0x00, 0xd4, 0x10, 
0x00, 0x00, 0xfc, 0xe9, 0xb3, 0x15, 0xc1, 0x27, 0xe7, 0x6d, 0x22, 0xfc, 0x03, 0xf4, 0x96, 0x37, 
0xc0, 0x60, 0xed, 0x75, 0xf9, 0xff, 0x76, 0x91, 0xda, 0xf0, 0x74, 0x0f, 0x37, 0xf6, 0xff, 0x00, 
0x30, 0x2c, 0x00, 0x20, 0x21, 0x42, 0x63, 0x4c, 0xed, 0xb3, 0xd1, 0x99, 0x00, 0x1e, 0xc6, 0xd9, 
0x18, 0x97, 0x4e, 0xb4, 0x62, 0x13, 0xff, 0x2f, 0xfe, 0x3f, 0x0f, 0x72, 0x8c, 0xb5, 0x4e, 0xcc, 
0xf5, 0x00, 0x33, 0x0c, 0x00, 0xc2, 0x81, 0x02, 0x00, 0x08, 0x31, 0x3f, 0xe0, 0x04, 0xc2, 0xa5, 
0x57, 0xfb, 0xff, 0x4b, 0xc8, 0xd4, 0x85, 0xa7, 0x75, 0x2e, 0x13, 0xd1, 0xff, 0x9f, 0x02, 0x08, 
0xba, 0xab, 0xff, 0xf5, 0x0f, 0x00, 0xa0, 0x30, 0x6b, 0xed, 0x00, 0x20, 0xa0, 0xd6, 0xe9, 0x9a, 
0x60, 0x76, 0xc7, 0x08, 0xfe, 0x81, 0x0a, 0x04, 0x9d, 0x43, 0x8d, 0x8f, 0xea, 0xff, 0x8f, 0x09, 
0xc1, 0xb9, 0x72, 0x83, 0x58, 0xfc, 0xff, 0x01, 0xe0, 0xc2, 0x01, 0x00, 0xb4, 0x27, 0x00, 0x1f, 
0xcc, 0xba, 0x21, 0x7e, 0x55, 0x7b, 0x72, 0x17, 0xfd, 0xff, 0xb3, 0x93, 0x52, 0xc8, 0x1b, 0xad, 
0xe7, 0xfc, 0xff, 0x3e, 0xe3, 0x09, 0x3b, 0xb6, 0x07, 0xb0, 0x55, 0x00, 0xc0, 0xcf, 0x6e, 0x9a, 
0x23, 0x83, 0x10, 0x70, 0x6b, 0xe7, 0x03, 0x00, 0xa4, 0x2c, 0x61, 0x35, 0x9f, 0x61, 0xdc, 0xfb, 
0x7f, 0xe6, 0xd4, 0xa9, 0x9d, 0x5d, 0x72, 0x38, 0xff, 0x0f, 0x34, 0xf1, 0xe2, 0x87, 0xd9, 0xff, 
0x01, 0x00, 0x0c, 0x13, 0x00, 0x40, 0x34, 0xa8, 0x2c, 0xf4, 0xd9, 0xad, 0xc6, 0x39, 0x11, 0x8f, 
0x4b, 0xf8, 0x9f, 0x3c, 0xc2, 0x78, 0x0a, 0x34, 0xc7, 0xff, 0x4f, 0x72, 0xe3, 0x69, 0x54, 0xba, 
0xff, 0x07, 0x80, 0x88, 0x10, 0x00, 0x5c, 0xc4, 0x5f, 0x03, 0xc4, 0x89, 0x6e, 0x1e, 0xb3, 0x68, 
0x4c, 0x00, 0x1f, 0x99, 0x78, 0xaf, 0x6c, 0x80, 0xec, 0xff, 0xb3, 0x83, 0x8f, 0x84, 0x2e, 0x0c, 
0xf5, 0xff, 0x0f, 0xb0, 0x28, 0x00, 0x80, 0x46, 0x0a, 0x00, 0x70, 0x15, 0x31, 0x85, 0x53, 0x2e, 
0x59, 0x93, 0x6d, 0x5c, 0xb9, 0x6e, 0xcd, 0x25, 0x8d, 0x55, 0x30, 0xf5, 0xff, 0x99, 0x91, 0xe7, 
0xbc, 0x1d, 0xcb, 0xff, 0x2f, 0xf7, 0x6d, 0x7b, 0x89, 0xd9, 0xf7, 0x0f, 0x00, 0xa0, 0x14, 0x00, 
0x30, 0x6e, 0x09, 0x83, 0xcc, 0x5a, 0xa7, 0xf3, 0x2d, 0x11, 0xfe, 0x57, 0xeb, 0xd4, 0x86, 0xb5, 
0x44, 0x78, 0x91, 0xff, 0xd7, 0xff, 0x3f, 0x86, 0x9e, 0x3b, 0x24, 0x19, 0x00, 0xaa, 0x0b, 0x00, 
0x58, 0x4f, 0xc1, 0x06, 0x65, 0x12, 0x97, 0xb2, 0x8e, 0x68, 0x05, 0xf8, 0x9c, 0x63, 0x71, 0x0a, 
0x53, 0xbd, 0x08, 0xd9, 0xff, 0xd7, 0x5a, 0x67, 0x33, 0xdb, 0xc7, 0xff, 0xaf, 0x85, 0xa0, 0xe3, 
0x37, 0x30, 0xfe, 0x00, 0xa0, 0x80, 0x4b, 0x01, 0x00, 0xb4, 0xe2, 0x98, 0xbe, 0xcc, 0xe8, 0xc2, 
0x35, 0xab, 0xdd, 0xac, 0xff, 0x27, 0x9c, 0xbc, 0xca, 0x5a, 0xa7, 0xfe, 0xff, 0x98, 0xae, 0xe6, 
0xf2, 0x21, 0x82, 0xf4, 0x1f, 0x00, 0x62, 0x73, 0x00, 0xa0, 0x58, 0x57, 0x45, 0x19, 0x19, 0x67, 
0x41, 0x1d, 0xa0, 0x97, 0xf0, 0x5f, 0xd9, 0x0b, 0x8c, 0x00, 0x6c, 0xe9, 0xff, 0xdf, 0xdb, 0xac, 
0x2f, 0x90, 0x5f, 0xfe, 0x1f, 0x00, 0x84, 0x18, 0x00, 0xec, 0x9e, 0xa4, 0x87, 0x22, 0x2d, 0x23, 
0x04, 0x9c, 0xba, 0x43, 0x80, 0x4f, 0x71, 0x6a, 0xf2, 0x79, 0xf5, 0x96, 0xca, 0xff, 0xff, 0x30, 
0x5b, 0xa9, 0x92, 0x5e, 0xf4, 0xff, 0x07, 0x1e, 0x6d, 0x4a, 0x7c, 0x80, 0x05, 0x00, 0x00, 0xd6, 
0x16, 0x00, 0x84, 0x99, 0xb1, 0x56, 0xef, 0xc7, 0x10, 0xea, 0x13, 0xfa, 0xff, 0x2a, 0x6e, 0x9e, 
0x67, 0x54, 0xef, 0xfe, 0xff, 0x0e, 0xa5, 0x80, 0x88, 0x08, 0xb6, 0xff, 0x00, 0x00, 0x67, 0x41, 
0x10, 0x3e, 0x00, 0x80, 0x32, 0xa1, 0xe3, 0x87, 0x38, 0x4d, 0x73, 0xd3, 0x84, 0x7f, 0xa3, 0xfd, 
0xd1, 0x9b, 0x3a, 0x79, 0x73, 0xf8, 0xff, 0x67, 0xec, 0x97, 0xb3, 0x80, 0x12, 0xff, 0x3f, 0x00, 
0x38, 0x31, 0x08, 0x88, 0xab, 0x4c, 0xd4, 0x8e, 0x18, 0xbc, 0xbd, 0xdb, 0x07, 0xe0, 0xc3, 0xf0, 
0x12, 0x22, 0x89, 0x11, 0xd2, 0x93, 0xff, 0x07, 0xfe, 0xbf, 0x28, 0xc7, 0x83, 0xc0, 0x0c, 0x39, 
0x7d, 0x1f, 0x30, 0xd5, 0x01, 0x20, 0x4b, 0x98, 0x08, 0x80, 0xf6, 0xa4, 0x97, 0xc9, 0x1d, 0xba, 
0xf4, 0xff, 0xf1, 0x41, 0xa5, 0x09, 0x58, 0xec, 0x18, 0xfa, 0xff, 0x67, 0xb2, 0xa3, 0x18, 0x63, 
0xf9, 0x3f, 0x5c, 0x2a, 0x00, 0x50, 0xf2, 0x1d, 0x00, 0x02, 0x21, 0x21, 0xe0, 0xd7, 0xf7, 0xe1, 
0x81, 0x62, 0xf0, 0x8f, 0x3b, 0x7f, 0x7c, 0x5b, 0xcd, 0x21, 0xfd, 0xbf, 0x1f, 0x63, 0xe0, 0x18, 
0xe8, 0xb0, 0xe2, 0xff, 0x01, 0x40, 0x88, 0x4e, 0x9d, 0x20, 0x10, 0x49, 0xaa, 0xc1, 0x93, 0x55, 
0x37, 0x00, 0x05, 0xf8, 0x4d, 0x45, 0x3a, 0xb8, 0x1e, 0x28, 0xf9, 0x7f, 0x39, 0x04, 0x4a, 0xe1, 
0xec, 0xa9, 0xfe, 0xff, 0x01, 0x50, 0x36, 0x00, 0x90, 0xd2, 0x02, 0x00, 0x65, 0xcf, 0x9a, 0xce, 
0xd9, 0x5f, 0x97, 0xd4, 0x50, 0x50, 0x0d, 0xb5, 0x23, 0x84, 0xff, 0xe6, 0xff, 0x0b, 0x06, 0x84, 
0x25, 0x75, 0x2f, 0x51, 0xfb, 0xff, 0xff, 0xc3, 0x7b, 0x01, 0x00, 0x00, 0x94, 0x06, 0x00, 0x90, 
0x16, 0x3f, 0x5a, 0x18, 0xb4, 0xfe, 0xb5, 0x59, 0x02, 0xff, 0x00, 0x58, 0xdf, 0x08, 0x2b, 0x35, 
0x9d, 0x05, 0xfe, 0x9f, 0x73, 0x4a, 0x89, 0xcd, 0xa9, 0x92, 0x53, 0xfe, 0x5f, 0x00, 0xa2, 0x12, 
0x00, 0x18, 0x90, 0x00, 0x3c, 0x52, 0x2d, 0xb5, 0x7c, 0x28, 0xc8, 0x09, 0xf1, 0xff, 0x43, 0x2b, 
0x3e, 0x77, 0x45, 0x71, 0x6c, 0x60, 0xfd, 0xff, 0x6f, 0x0f, 0xe9, 0x49, 0xa4, 0x95, 0xc9, 0x3d, 
0x00, 0x00, 0xac, 0x24, 0x03, 0xf4, 0x00, 0x30, 0x03, 0x7c, 0xe7, 0x8c, 0x21, 0xc9, 0x23, 0xdc, 
0xff, 0x1f, 0xd0, 0xb9, 0x06, 0x44, 0x08, 0xff, 0xff, 0xc7, 0x88, 0x4e, 0xa5, 0x31, 0xad, 0xf9, 
0x07, 0x00, 0x20, 0x95, 0xcf, 0x0b, 0x00, 0x48, 0x3d, 0x20, 0xbf, 0x8c, 0x2b, 0x92, 0x16, 0xfe, 
0xaf, 0xd4, 0x82, 0x06, 0x5a, 0x72, 0x43, 0xe4, 0xff, 0x1f, 0x7a, 0x4a, 0x67, 0xb4, 0xfb, 0xfe, 
0xff, 0x37, 0x86, 0xfa, 0xbd, 0x7f, 0x39, 0x0a, 0x00, 0x71, 0x13, 0x00, 0x68, 0x1e, 0x01, 0xfc, 
0x48, 0xa9, 0x21, 0xb0, 0x18, 0x21, 0xd4, 0xc5, 0xff, 0xbf, 0x04, 0xc0, 0x66, 0xfd, 0xc9, 0xfa, 
0xfb, 0xff, 0x9a, 0x0e, 0xbd, 0xfb, 0x11, 0x5a, 0x1e, 0x00, 0x00, 0x2c, 0x92, 0x98, 0x14, 0x00, 
0xf8, 0x86, 0x91, 0x1b, 0x38, 0x9b, 0x44, 0x5e, 0x01, 0xfd, 0x3f, 0x7b, 0x7e, 0x40, 0x89, 0x98, 
0xfe, 0xff, 0xec, 0xa5, 0x8f, 0x3e, 0xa8, 0x46, 0xfc, 0x0f, 0x00, 0x80, 0x4c, 0x08, 0x00, 0x62, 
0x03, 0x1f, 0x12, 0xc6, 0x86, 0xd2, 0x1c, 0x0f, 0x35, 0x1a, 0xfc, 0x27, 0x0c, 0x9a, 0x06, 0xa2, 
0xa4, 0x2d, 0xfc, 0x7f, 0x3a, 0xed, 0x0c, 0x0a, 0x75, 0xee, 0xff, 0x0f, 0x00, 0x51, 0x0d, 0x00, 
0xdb, 0xb6, 0xa8, 0x04, 0xd9, 0xc6, 0x0e, 0xec, 0x2c, 0x07, 0xe0, 0x25, 0xc2, 0xd4, 0xdc, 0xef, 
0xf7, 0xf2, 0xff, 0x58, 0xb4, 0x07, 0xe2, 0x78, 0x15, 0xfc, 0xff, 0x03, 0xac, 0x27, 0x00, 0x48, 
0x00, 0xb0, 0x31, 0x35, 0x47, 0x90, 0x0b, 0xd2, 0x01, 0xc0, 0xb6, 0xab, 0x7a, 0x34, 0x24, 0xdf, 
0x09, 0x3f, 0x55, 0xc9, 0xfa, 0xff, 0x43, 0x96, 0x25, 0x96, 0x52, 0x0a, 0xf9, 0x7f, 0x0a, 0xcb, 
0x88, 0x70, 0x1a, 0xac, 0xfe, 0x41, 0x02, 0x96, 0x04, 0x00, 0x54, 0x93, 0xc3, 0x3f, 0xd4, 0x10, 
0x81, 0x50, 0xed, 0x4c, 0x1f, 0x60, 0xff, 0x7f, 0xd0, 0x53, 0x0b, 0xb6, 0xce, 0x52, 0xcb, 0xff, 
0xb7, 0x2f, 0xb1, 0x7a, 0x46, 0xff, 0x49, 0x28, 0x00, 0xb4, 0x12, 0x00, 0xd4, 0x97, 0x0b, 0xf0, 
0x00, 0xe4, 0x2a, 0x70, 0x79, 0x14, 0x00, 0xf4, 0xff, 0x14, 0x27, 0x90, 0x13, 0xdb, 0xfe, 0x09, 
0xeb, 0xff, 0x6f, 0x26, 0xfa, 0x00, 0xec, 0x06, 0xc3, 0xf6, 0x23, 0x00, 0x60, 0x29, 0x00, 0xc0, 
0x1a, 0x31, 0x31, 0x15, 0x79, 0x87, 0x93, 0x57, 0xff, 0xbf, 0x74, 0xd6, 0x19, 0x95, 0x50, 0x0e, 
0xfa, 0xff, 0x7f, 0x80, 0x3a, 0x00, 0x90, 0x65, 0x5d, 0x00, 0xd7, 0x85, 0x62, 0xdc, 0xaf, 0xf8, 
0x60, 0x55, 0x04, 0x0c, 0x45, 0xc1, 0xad, 0x05, 0xff, 0xc1, 0x51, 0x4f, 0xb3, 0x26, 0x58, 0x34, 
0x32, 0x56, 0xff, 0x0f, 0xfe, 0x3f, 0x71, 0xe7, 0x7d, 0xab, 0x0f, 0x6d, 0x1f, 0x00, 0xa2, 0x1c, 
0x00, 0x86, 0x1b, 0x06, 0x78, 0xc0, 0x8d, 0x63, 0xec, 0xf9, 0x8c, 0xaf, 0xff, 0x7f, 0x42, 0x02, 
0x15, 0x2e, 0x23, 0x61, 0xfd, 0xff, 0xff, 0x00, 0x5e, 0x00, 0x80, 0x21, 0x8b, 0x00, 0x80, 0xdf, 
0x9e, 0xfe, 0x95, 0xaa, 0xaa, 0x04, 0xaa, 0x12, 0x6c, 0x6f, 0x0f, 0x26, 0xf2, 0x56, 0xff, 0x2f, 
0x8c, 0xe3, 0xfd, 0xae, 0xa0, 0x56, 0xfb, 0xff, 0x7f, 0x30, 0x72, 0x00, 0x20, 0x24, 0x0d, 0x00, 
0xa2, 0x1e, 0xed, 0x40, 0x93, 0x6e, 0x4e, 0x78, 0xcd, 0xe1, 0x1f, 0xd2, 0x6d, 0xc1, 0x5c, 0x95, 
0x9a, 0x23, 0x29, 0xfa, 0xff, 0xd0, 0x2c, 0x9a, 0x3d, 0xa6, 0x8c, 0xfd, 0xff, 0x53, 0x1d, 0xe5, 
0xed, 0x4b, 0x63, 0x7e, 0x00, 0xa0, 0x0d, 0x02, 0x50, 0xb8, 0x00, 0xe0, 0x91, 0x6c, 0x08, 0x51, 
0xd1, 0xa9, 0xbc, 0xff, 0x87, 0x4b, 0x25, 0xcd, 0xc5, 0x8c, 0xb6, 0xfd, 0xff, 0x03, 0x64, 0x09, 
0x00, 0x8c, 0xe0, 0x0b, 0xde, 0x7d, 0x4d, 0x11, 0x58, 0x8d, 0x00, 0x00, 0x66, 0xc6, 0xa5, 0x03, 
0xfb, 0x8a, 0xd2, 0x00, 0xc3, 0xff, 0x73, 0xa6, 0x3b, 0xa0, 0xc7, 0x59, 0x63, 0xc0, 0xff, 0xff, 
0x43, 0xa9, 0x03, 0xc0, 0x3f, 0x60, 0x6d, 0x9e, 0x7f, 0x2b, 0x00, 0x74, 0x6e, 0xca, 0x80, 0x99, 
0xca, 0xa5, 0x72, 0x6e, 0x55, 0xc1, 0xbf, 0x85, 0x7c, 0x52, 0xe8, 0xfc, 0xf0, 0xff, 0x82, 0x12, 
0x24, 0x0c, 0x29, 0xe5, 0xff, 0x01, 0x80, 0x97, 0x10, 0x00, 0xf8, 0xab, 0xff, 0x17, 0x08, 0x71, 
0x5e, 0x96, 0x26, 0x00, 0xf8, 0xf9, 0xe2, 0x52, 0x45, 0x1d, 0x29, 0x68, 0x3f, 0x4a, 0xff, 0x2f, 
0xff, 0x5f, 0x1b, 0xd9, 0x7d, 0x02, 0x77, 0x96, 0x07, 0xb0, 0x25, 0x00, 0x80, 0x29, 0x02, 0x00, 
0x0c, 0xc2, 0xe6, 0x4e, 0x73, 0x14, 0x99, 0x49, 0x71, 0x4f, 0xf0, 0xac, 0x2b, 0x47, 0x8c, 0xfe, 
0xff, 0xc2, 0x07, 0x8f, 0x48, 0x88, 0xfc, 0xff, 0x3f, 0x04, 0x29, 0x00, 0x40, 0x18, 0x02, 0x00, 
0x44, 0xfe, 0x8e, 0xad, 0x44, 0xf3, 0x36, 0xec, 0xcc, 0xc2, 0xbf, 0x48, 0x90, 0xb7, 0x33, 0x94, 
0x89, 0xbe, 0x96, 0xfe, 0x1f, 0x4b, 0x5f, 0xbc, 0x95, 0x69, 0xec, 0xff, 0x07, 0x80, 0xfc, 0x09, 
0x00, 0x80, 0xa5, 0xe6, 0x3d, 0x5b, 0xcb, 0x55, 0x4b, 0x75, 0x06, 0x00, 0x3e, 0x49, 0x12, 0xcc, 
0xce, 0xaa, 0xda, 0xc6, 0x15, 0xff, 0xdf, 0xff, 0x5f, 0x09, 0xe2, 0x88, 0x78, 0xe7, 0x01, 0xf2, 
0x16, 0x20, 0x00, 0xa5, 0x15, 0x00, 0xe4, 0xe8, 0x05, 0xda, 0xad, 0x1c, 0x42, 0x2c, 0xd1, 0x2e, 
0xa7, 0x66, 0x7c, 0xeb, 0xe5, 0x43, 0x25, 0xff, 0x8f, 0x6f, 0x90, 0x11, 0x88, 0x72, 0xe0, 0xff, 
0x9b, 0x7c, 0xae, 0x48, 0x3b, 0x55, 0x9a, 0xff, 0x00, 0x00, 0x23, 0x00, 0x04, 0xba, 0x2b, 0xf8, 
0x27, 0xf8, 0xf1, 0xb6, 0x53, 0xf3, 0x26, 0xd4, 0xfc, 0x7f, 0x4d, 0x99, 0x7b, 0x04, 0xca, 0xd1, 
0xe0, 0xff, 0x01, 0x60, 0x8c, 0x34, 0x70, 0x03, 0x00, 0x38, 0x61, 0xee, 0x50, 0xb2, 0x03, 0x58, 
0x08, 0xf0, 0x84, 0x4a, 0x6d, 0x42, 0x2d, 0x4f, 0xfc, 0x91, 0xff, 0xff, 0x18, 0xe5, 0x16, 0xba, 
0x66, 0x43, 0xf9, 0xff, 0x07, 0x90, 0x59, 0x00, 0x08, 0xb0, 0x31, 0xad, 0xeb, 0x44, 0xbf, 0xf8, 
0x0e, 0x5c, 0x01, 0xe0, 0x9f, 0x12, 0x66, 0x19, 0x46, 0x18, 0x2e, 0x44, 0xff, 0xbf, 0x52, 0x21, 
0x12, 0x98, 0xdc, 0x4f, 0xfb, 0xff, 0x7f, 0x00, 0x54, 0x04, 0xb8, 0x4e, 0x01, 0x00, 0xc2, 0x0e, 
0xdd, 0x00, 0x87, 0xd4, 0xaa, 0x1a, 0xfe, 0x0f, 0x25, 0x99, 0x2a, 0xc8, 0x7c, 0x23, 0x87, 0x69, 
0xfd, 0x7f, 0xe1, 0x7d, 0x73, 0x05, 0x9a, 0x95, 0xf9, 0x7f, 0xe9, 0x43, 0x45, 0x38, 0x21, 0xd9, 
0x00, 0x80, 0x0a, 0x01, 0xa0, 0x0a, 0x0e, 0xe0, 0x67, 0xdd, 0xad, 0xec, 0x7d, 0x29, 0xa5, 0xa3, 
0xf1, 0xff, 0x06, 0x90, 0x7d, 0xa6, 0x65, 0x29, 0xfc, 0xff, 0x2a, 0x01, 0xd3, 0x70, 0x32, 0xcf, 
0x0f, 0x50, 0xf4, 0x00, 0x00, 0x02, 0x0f, 0x00, 0x00, 0xce, 0x84, 0x8b, 0x14, 0xec, 0x9a, 0x03, 
0x19, 0xfd, 0x7f, 0x3b, 0x29, 0xa5, 0xc6, 0x33, 0x71, 0x0a, 0xdd, 0xff, 0x5f, 0x39, 0x80, 0x04, 
0xe5, 0xf6, 0x7f, 0x00, 0x80, 0xb6, 0xa8, 0x5c, 0x11, 0x00, 0xd0, 0x14, 0xe0, 0x79, 0x17, 0x49, 
0xad, 0xa2, 0xf0, 0x1f, 0xe2, 0x6a, 0x6f, 0x86, 0x57, 0x11, 0xfb, 0xff, 0xf1, 0x86, 0x33, 0x64, 
0xef, 0xb2, 0xcb, 0xff, 0x03, 0x00, 0x89, 0x47, 0x00, 0x20, 0xb7, 0x4a, 0xe2, 0xc3, 0x58, 0x42, 
0x49, 0x08, 0xe0, 0x3d, 0x03, 0x29, 0xac, 0xc1, 0x22, 0xfb, 0x21, 0xf3, 0xff, 0xf2, 0xff, 0xf1, 
0x56, 0x0c, 0x47, 0x9b, 0x83, 0xa0, 0x07, 0x28, 0x0b, 0x00, 0x80, 0xc9, 0x0d, 0x00, 0x04, 0x31, 
0x0c, 0x76, 0x43, 0x58, 0x4c, 0x77, 0x6a, 0xfe, 0xff, 0x64, 0x51, 0x88, 0xf8, 0x9c, 0x73, 0x72, 
0xf8, 0xff, 0x77, 0x0a, 0xe2, 0x3d, 0xab, 0xfa, 0x0f, 0x29, 0x00, 0x00, 0x28, 0x52, 0x00, 0xd8, 
0x11, 0x06, 0xf0, 0x0f, 0xa6, 0x56, 0xf6, 0xb8, 0x6a, 0xf0, 0x0f, 0xf1, 0xfa, 0x8a, 0x13, 0x68, 
0xfd, 0xff, 0x74, 0x5a, 0x00, 0x1f, 0xac, 0x7c, 0xe5, 0xff, 0x03, 0x80, 0x93, 0x62, 0x28, 0x04, 
0x00, 0x8e, 0x24, 0xaf, 0xa8, 0x9e, 0xa2, 0x0e, 0x44, 0x00, 0x3e, 0x34, 0x8b, 0x9f, 0xbf, 0x56, 
0x8f, 0xfe, 0xdf, 0x2c, 0x43, 0x7a, 0xfe, 0xbd, 0x1b, 0xfe, 0xff, 0x0f, 0x10, 0x2b, 0x00, 0xc0, 
0x97, 0xac, 0x58, 0x72, 0xb1, 0xb9, 0xde, 0x11, 0x25, 0x06, 0x00, 0x02, 0x00, 0x6c, 0x0d, 0x16, 
0x43, 0xd0, 0x44, 0xf8, 0xff, 0x9b, 0xe6, 0xba, 0x2d, 0x91, 0xc4, 0x06, 0xfe, 0x1f, 0x85, 0x1a, 
0x66, 0x95, 0xf7, 0xff, 0x03, 0x00, 0x14, 0x44, 0x01, 0xe0, 0x21, 0x9c, 0xf3, 0xb6, 0x00, 0xf4, 
0x18, 0x2f, 0x9a, 0x04, 0xfe, 0x33, 0x4a, 0x17, 0x2b, 0xa0, 0xc1, 0x3b, 0xff, 0x5f, 0x0d, 0x37, 
0x54, 0x3c, 0x30, 0xff, 0x1f, 0x00, 0x90, 0x0f, 0x00, 0xd2, 0x39, 0xbd, 0xdb, 0x3d, 0xd2, 0x1f, 
0x21, 0x04, 0x7e, 0x04, 0xf8, 0xea, 0xad, 0xd1, 0x0c, 0xa9, 0xc4, 0xff, 0x7f, 0x0c, 0x05, 0x96, 
0xd9, 0x51, 0xfe, 0x7f, 0xe5, 0x20, 0x4a, 0xde, 0x27, 0x3c, 0x00, 0xd9, 0x01, 0x40, 0x7b, 0xf8, 
0x00, 0xd0, 0xa2, 0xb9, 0x40, 0x2f, 0x9c, 0xc6, 0x47, 0x50, 0x2b, 0xf8, 0x03, 0x02, 0xe8, 0x46, 
0xfd, 0xbf, 0x40, 0x69, 0xbf, 0xbf, 0x95, 0x75, 0xb6, 0xfb, 0xff, 0x8a, 0xce, 0x60, 0xc7, 0x38, 
0x7d, 0xdc, 0x3f, 0x00, 0x40, 0x1e, 0x02, 0x80, 0xb2, 0xae, 0xf0, 0xef, 0xf8, 0x3a, 0x1d, 0xe7, 
0x48, 0xce, 0xac, 0x20, 0xfc, 0x3f, 0x18, 0x60, 0xd0, 0x3c, 0xe9, 0xff, 0x5f, 0x6a, 0x83, 0x8b, 
0xb0, 0x29, 0xb4, 0xa9, 0x00, 0x20, 0xd1, 0x00, 0x70, 0x41, 0x0c, 0xe8, 0x1b, 0x73, 0xc2, 0x38, 
0x00, 0x14, 0xd3, 0xff, 0x5f, 0x20, 0x5b, 0xec, 0x3a, 0x12, 0xd5, 0xfb, 0xff, 0xb3, 0xcf, 0xb8, 
0xe2, 0x29, 0x98, 0x3c, 0x00, 0xbf, 0x43, 0x80, 0x08, 0x0d, 0x05, 0x80, 0x7a, 0x41, 0x18, 0x6b, 
0x5d, 0x4d, 0xb5, 0x0a, 0xfd, 0xff, 0x0a, 0x6a, 0x19, 0xab, 0xe8, 0xcf, 0xff, 0x6f, 0xab, 0x25, 
0xde, 0xde, 0x8c, 0xff, 0xa0, 0xa3, 0x00, 0x90, 0xcb, 0x2a, 0x00, 0x54, 0x71, 0x14, 0x4b, 0x4e, 
0xf2, 0x1f, 0x85, 0x96, 0x56, 0xf4, 0x08, 0xdb, 0x7c, 0xf0, 0x7f, 0xb4, 0x17, 0x17, 0xd7, 0x55, 
0x1a, 0xe0, 0xff, 0xfb, 0xff, 0x29, 0xe4, 0xbf, 0x50, 0x16, 0x8f, 0x0a, 0x40, 0x13, 0x03, 0x00, 
0x27, 0xdf, 0x00, 0x4f, 0x11, 0xd2, 0xd4, 0xda, 0x3a, 0x4d, 0xae, 0xf6, 0xff, 0x21, 0x7a, 0x14, 
0xe8, 0xac, 0x92, 0x4f, 0xfe, 0x7f, 0xa0, 0xf1, 0x9b, 0x2b, 0x51, 0x55, 0xde, 0x03, 0x68, 0x12, 
0x00, 0xc8, 0x63, 0x06, 0x80, 0x98, 0xb0, 0x9e, 0xf4, 0x80, 0x30, 0x86, 0x75, 0xfa, 0xff, 0x53, 
0x30, 0x45, 0xe5, 0xef, 0x8f, 0xf6, 0xff, 0x37, 0xd4, 0xd8, 0x85, 0xbc, 0xff, 0xa0, 0xec, 0x00, 
0x30, 0x6c, 0x08, 0x00, 0xe0, 0x9a, 0xc6, 0xd1, 0xb4, 0x41, 0x34, 0x26, 0x41, 0x78, 0x68, 0x4d, 
0xce, 0x41, 0x54, 0xf8, 0x1f, 0x77, 0x59, 0x69, 0x44, 0x0d, 0x6e, 0x17, 0xe9, 0xff, 0xe7, 0xff, 
0x4f, 0x37, 0x3b, 0x9a, 0x57, 0x2a, 0x00, 0x60, 0x9c, 0x00, 0x20, 0x68, 0x00, 0xc0, 0xc7, 0x1c, 
0x7c, 0x16, 0x06, 0x88, 0xe2, 0xa2, 0x32, 0xff, 0x6f, 0xc4, 0x02, 0xaa, 0x27, 0x26, 0x95, 0x38, 
0xff, 0x3f, 0x53, 0x33, 0x22, 0xbc, 0x46, 0xe7, 0x03, 0xac, 0x3e, 0x00, 0x18, 0x08, 0x11, 0x00, 
0x00, 0x13, 0xa7, 0xa9, 0x1d, 0xad, 0x5a, 0xc0, 0xf0, 0xff, 0x4e, 0x79, 0x65, 0xc5, 0xa9, 0xd0, 
0xd3, 0xf4, 0xff, 0x73, 0xe5, 0x71, 0xea, 0x86, 0x93, 0xd8, 0xfe, 0x01, 0x00, 0x80, 0x01, 0x00, 
0x28, 0x64, 0xf8, 0x1f, 0x06, 0xc7, 0xa9, 0x0f, 0xe9, 0x86, 0xf0, 0xa3, 0xa1, 0xff, 0x8f, 0x42, 
0xb5, 0xc2, 0x3d, 0x32, 0x25, 0xfd, 0x7f, 0x83, 0xd1, 0x21, 0xb2, 0xcd, 0x88, 0x12, 0x00, 0x40, 
0x0f, 0x00, 0x04, 0x66, 0x01, 0x78, 0x91, 0xdc, 0xd7, 0x65, 0x81, 0x44, 0x60, 0x31, 0xf1, 0xff, 
0x27, 0x91, 0xb5, 0xab, 0x7b, 0x8f, 0x4e, 0x4a, 0xff, 0x4f, 0xb0, 0x61, 0x1a, 0xe0, 0x29, 0xde, 
0x03, 0x00, 0x00, 0x59, 0xe5, 0x44, 0x00, 0x80, 0xa4, 0xbb, 0x44, 0x58, 0xb2, 0xad, 0x80, 0xfd, 
0x7f, 0x3c, 0x05, 0x48, 0x4f, 0x36, 0xab, 0x63, 0xfe, 0x7f, 0x9b, 0x4b, 0x76, 0x8c, 0x1f, 0xc7, 
0xe7, 0x1f, 0x04, 0x40, 0xc4, 0x01, 0x40, 0xa0, 0x2d, 0xfc, 0x13, 0xb1, 0x43, 0xc3, 0xde, 0x0e, 
0x1b, 0x19, 0x53, 0xf9, 0x7f, 0x50, 0x5b, 0xe1, 0x92, 0x92, 0x21, 0xfe, 0xfb, 0x7f, 0xf2, 0x48, 
0x06, 0x52, 0x22, 0xc0, 0x3c, 0x05, 0x80, 0x43, 0x02, 0x00, 0x88, 0x97, 0x00, 0x8f, 0x8a, 0x72, 
0xb5, 0x6f, 0x3b, 0x1a, 0xd5, 0xfe, 0x3f, 0xb4, 0x5c, 0x56, 0x10, 0x32, 0xed, 0xff, 0x7f, 0x00, 
0xaa, 0x07, 0x00, 0x20, 0xa0, 0x68, 0x01, 0xc3, 0x90, 0x39, 0x3c, 0x52, 0x02, 0x80, 0xdb, 0x33, 
0xbc, 0x41, 0x2c, 0x34, 0x58, 0x25, 0x8d, 0xff, 0x6f, 0x31, 0xdc, 0xc7, 0x78, 0x83, 0xfb, 0xff, 
0xff, 0x21, 0x89, 0x00, 0xc2, 0xfc, 0x02, 0x00, 0x48, 0x4e, 0x72, 0x25, 0x28, 0xb2, 0x2a, 0x31, 
0x33, 0xfc, 0x23, 0xaf, 0x8e, 0xa4, 0xce, 0xbf, 0xb0, 0xff, 0xbf, 0x8e, 0x72, 0xe8, 0x09, 0x44, 
0x0c, 0xe2, 0xff, 0x01, 0x20, 0xc5, 0x46, 0x2f, 0x01, 0x40, 0xb0, 0x90, 0x94, 0xa4, 0x9e, 0x0e, 
0xe2, 0xbd, 0x01, 0x78, 0x11, 0xc4, 0x18, 0x7e, 0xc7, 0x70, 0x50, 0x5e, 0xe0, 0xff, 0x91, 0x2b, 
0xb1, 0x25, 0xe7, 0xcb, 0xa6, 0xff, 0x4f, 0xb4, 0x1a, 0xe3, 0xf8, 0x6c, 0x7c, 0x7d, 0x02, 0x00, 
0x01, 0x79, 0x01, 0x00, 0xa8, 0x97, 0x5e, 0xce, 0xe9, 0xc3, 0x1a, 0x0d, 0xaa, 0xff, 0x27, 0xdb, 
0x03, 0x01, 0xa8, 0x01, 0xfb, 0xff, 0xff, 0xe1, 0xcd, 0x00, 0x00, 0x24, 0xe5, 0x01, 0x48, 0x08, 
0xc6, 0xa3, 0x4f, 0x95, 0x0e, 0x82, 0x64, 0x11, 0xf8, 0xe7, 0x77, 0x35, 0x3d, 0x52, 0x75, 0x92, 
0xff, 0xff, 0x93, 0xc2, 0xa3, 0xa0, 0x16, 0xec, 0xff, 0x07, 0x80, 0x5c, 0x06, 0x00, 0x00, 0xa8, 
0x28, 0xeb, 0x91, 0x22, 0xc7, 0xad, 0x4a, 0x60, 0xb1, 0x14, 0xe0, 0x01, 0x09, 0x3c, 0xb9, 0x23, 
0x51, 0x71, 0xff, 0x0f, 0x0e, 0x20, 0xf8, 0x8a, 0x89, 0xed, 0xdf, 0xff, 0xff, 0x00, 0xd5, 0x0e, 
0x20, 0x11, 0xad, 0x06, 0x00, 0x9c, 0x54, 0x3a, 0x39, 0x4c, 0x40, 0xd0, 0xc5, 0x01, 0x4a, 0x0f, 
0xb1, 0xe6, 0xa2, 0xf4, 0xff, 0x2b, 0x24, 0x04, 0xd0, 0x4e, 0x04, 0xd1, 0xe4, 0xff, 0xff, 0x43, 
0x45, 0x02, 0x40, 0x5a, 0x3a, 0x20, 0x70, 0x92, 0xb5, 0xe0, 0xad, 0x65, 0xcc, 0x74, 0xdf, 0xf0, 
0x1f, 0x40, 0x20, 0x21, 0x60, 0x14, 0xcb, 0xff, 0x8f, 0x6c, 0x34, 0x96, 0x85, 0x06, 0xa9, 0xff, 
0x1f, 0x00, 0x04, 0x50, 0x47, 0x03, 0x00, 0x70, 0x65, 0x31, 0xf1, 0xeb, 0x3f, 0xa4, 0x18, 0x49, 
0x00, 0x6f, 0x6b, 0xec, 0x1f, 0xd8, 0x34, 0x11, 0x92, 0xff, 0xd7, 0x00, 0x06, 0xee, 0xdb, 0x59, 
0xf2, 0xff, 0x1f, 0x41, 0x15, 0x01, 0x40, 0x35, 0x08, 0xe9, 0x15, 0x0b, 0xd0, 0x03, 0x18, 0x04, 
0x00, 0x01, 0x8d, 0x7d, 0x2e, 0x20, 0x91, 0x59, 0x7c, 0x03, 0xfc, 0x3f, 0xfd, 0x0f, 0x85, 0x48, 
0x41, 0x4d, 0x42, 0xff, 0xff, 0x3f, 0xb0, 0x28, 0x00, 0x28, 0xdb, 0x02, 0x00, 0xc0, 0x94, 0x5c, 
0x48, 0x67, 0x7a, 0x13, 0x27, 0x00, 0xff, 0xd0, 0x9c, 0x9d, 0x83, 0x6f, 0x0c, 0x5f, 0xef, 0xff, 
0x9f, 0xba, 0x18, 0x23, 0x74, 0xb6, 0x15, 0x02, 0xff, 0x0f, 0x00, 0x11, 0x0b, 0x00, 0x59, 0x44, 
0x24, 0xae, 0x5c, 0x3d, 0xa7, 0xb2, 0x00, 0xbe, 0x4c, 0x63, 0x12, 0x25, 0xab, 0x2f, 0x47, 0x6c, 
0xff, 0x9f, 0xfe, 0x5f, 0xe5, 0xe1, 0xd3, 0x6f, 0x04, 0xf0, 0x07, 0xac, 0x34, 0x00, 0xa0, 0x25, 
0x14, 0x00, 0x04, 0x95, 0x94, 0x9d, 0xc2, 0xf7, 0x40, 0x95, 0x39, 0xfe, 0x97, 0xd8, 0xb8, 0x43, 
0xd3, 0xfe, 0x7f, 0xfa, 0xc1, 0x0a, 0x1a, 0x25, 0xc7, 0xff, 0xff, 0x87, 0xd8, 0x06, 0x80, 0x8c, 
0xba, 0x02, 0xc0, 0x1d, 0x43, 0x47, 0xa3, 0x52, 0xd0, 0xd2, 0x5c, 0xc9, 0x80, 0x20, 0x22, 0xd5, 
0x25, 0xfc, 0xcf, 0xda, 0xb9, 0xd1, 0xac, 0x35, 0xdf, 0xff, 0xa7, 0x1b, 0xe6, 0xca, 0x32, 0xfc, 
0x3f, 0x00, 0x5c, 0x14, 0xa9, 0xe4, 0x00, 0xe0, 0xe0, 0xa6, 0x4d, 0x2c, 0x2c, 0x0a, 0xdc, 0xa5, 
0x00, 0x9f, 0x9a, 0x2d, 0x20, 0xec, 0x50, 0xea, 0xf4, 0xfe, 0xff, 0x98, 0xed, 0x1d, 0x17, 0x85, 
0x39, 0xe3, 0xff, 0x01, 0x4f, 0x74, 0x07, 0xd6, 0xf5, 0x03, 0x88, 0x2b, 0x00, 0x28, 0xc5, 0x1c, 
0x00, 0x9a, 0x53, 0xe4, 0xf9, 0xda, 0x5b, 0xa4, 0x59, 0xf7, 0xff, 0x01, 0xdf, 0x16, 0x29, 0x29, 
0x89, 0xf6, 0xff, 0xcf, 0x15, 0x31, 0x5b, 0x52, 0x73, 0xb4, 0x7f, 0x00, 0x80, 0x94, 0xcc, 0x32, 
0x0c, 0x00, 0x65, 0x61, 0x74, 0x40, 0x0d, 0xa1, 0xd3, 0x26, 0xfd, 0x17, 0xcc, 0x41, 0x8b, 0xbd, 
0x62, 0x15, 0xfc, 0xbf, 0xdc, 0xeb, 0xa4, 0x37, 0x9b, 0x0f, 0xff, 0x0f, 0x04, 0xdf, 0x02, 0x00, 
0x28, 0x89, 0x02, 0xc0, 0xb7, 0x23, 0xfb, 0xfd, 0x20, 0x03, 0x3c, 0xe0, 0x0c, 0xb4, 0xf6, 0x48, 
0x71, 0x5b, 0xc8, 0xe9, 0xff, 0x6b, 0xff, 0x2f, 0x36, 0xcd, 0x7b, 0x9b, 0x61, 0x1e, 0xa0, 0x52, 
0x00, 0x40, 0xfe, 0x0e, 0x00, 0x34, 0x79, 0x17, 0x96, 0x58, 0x1f, 0x51, 0x89, 0xfe, 0x57, 0xaf, 
0x7d, 0x04, 0xc8, 0xd6, 0x99, 0xf7, 0xff, 0xb7, 0x7b, 0x7a, 0xf2, 0xde, 0xff, 0x7f, 0x22, 0x03, 
0xad, 0xfe, 0x03, 0xba, 0x0a, 0xa0, 0xb6, 0x69, 0x00, 0x72, 0xdb, 0x69, 0xbb, 0x36, 0xa8, 0xe1, 
0xd3, 0x0b, 0xff, 0xec, 0x84, 0x15, 0xcb, 0x09, 0xd6, 0x91, 0xff, 0xa7, 0xbf, 0xff, 0x49, 0x6b, 
0xfa, 0xff, 0xbe, 0x4e, 0xe8, 0x19, 0x1f, 0x2a, 0x00, 0x40, 0x79, 0x01, 0xe0, 0x6e, 0x9f, 0xad, 
0x03, 0x3a, 0x96, 0x6b, 0xf4, 0x03, 0xfc, 0x5a, 0x0f, 0xb9, 0xac, 0xcc, 0x8e, 0xf7, 0xff, 0x01, 
0xd5, 0x25, 0x9a, 0xbb, 0xf9, 0xff, 0x77, 0x80, 0xb8, 0xb2, 0xd0, 0x43, 0xed, 0x07, 0xd0, 0x37, 
0x00, 0xc8, 0xff, 0xa7, 0xc3, 0x01, 0x18, 0x5b, 0xd6, 0x97, 0x00, 0xc0, 0xe2, 0x99, 0x15, 0xda, 
0xb0, 0x40, 0xf3, 0xff, 0x34, 0x48, 0x70, 0x9b, 0x4b, 0xbc, 0xff, 0x7f, 0xc5, 0xa7, 0x60, 0xdb, 
0xf7, 0x9b, 0xfc, 0x07, 0x00, 0x88, 0x8a, 0x97, 0x48, 0x00, 0x78, 0x23, 0xef, 0xbd, 0x0b, 0x3c, 
0x28, 0x82, 0xff, 0x6d, 0xe3, 0xfc, 0x74, 0xb0, 0x65, 0xc5, 0xff, 0x27, 0x0a, 0x8a, 0x8a, 0x2f, 
0xce, 0x67, 0xff, 0xff, 0x38, 0x7a, 0x73, 0x1b, 0x3a, 0x36, 0x00, 0xe1, 0x39, 0x00, 0x00, 0xdc, 
0x34, 0xc0, 0x97, 0xf6, 0xd0, 0xc0, 0x2f, 0x08, 0xc2, 0x24, 0x95, 0x61, 0xfe, 0x3f, 0x12, 0xec, 
0xb7, 0xe5, 0xc0, 0xfd, 0xff, 0x31, 0xd8, 0x94, 0xae, 0x0b, 0xc4, 0xf8, 0x03, 0x00, 0x00, 0xc0, 
0x00, 0x00, 0x42, 0xea, 0xc9, 0x5f, 0x29, 0x64, 0x8a, 0x69, 0x40, 0xfa, 0xff, 0x68, 0x04, 0xf8, 
0xab, 0x2b, 0xc0, 0xe1, 0xff, 0xff, 0x43, 0x99, 0x03, 0x40, 0x20, 0x5c, 0x80, 0x60, 0x08, 0xea, 
0xfe, 0x0b, 0x84, 0x66, 0xd1, 0x18, 0x19, 0xfe, 0x8d, 0xe0, 0x52, 0x01, 0xab, 0x98, 0xf5, 0xff, 
0xbf, 0x70, 0x2c, 0x2f, 0x2c, 0xb0, 0xde, 0xff, 0x03, 0x00, 0x65, 0xa3, 0xa2, 0x06, 0x00, 0x54, 
0x3b, 0x32, 0x58, 0x52, 0x58, 0xc8, 0x78, 0x04, 0xf8, 0xd8, 0xd5, 0x10, 0x80, 0x15, 0xa9, 0xf8, 
0xc5, 0xfb, 0x7f, 0x01, 0xd3, 0xdf, 0xaf, 0x42, 0xb8, 0xff, 0xff, 0x55, 0x47, 0x52, 0x37, 0xdf, 
0x64, 0xe3, 0x03, 0x00, 0xc0, 0xa2, 0x91, 0x06, 0x0f, 0x00, 0x08, 0x71, 0x6c, 0xd5, 0xa3, 0x97, 
0x39, 0xa3, 0xf8, 0xff, 0xe2, 0xa1, 0x50, 0x4d, 0x0a, 0x73, 0xc5, 0xf2, 0xff, 0x7f, 0xc8, 0x38, 
0x84, 0x34, 0x1c, 0xea, 0x7f, 0x00, 0x80, 0x43, 0x06, 0x80, 0x52, 0xac, 0xa2, 0x03, 0x82, 0x75, 
0x01, 0xbb, 0x65, 0x07, 0xf8, 0x8f, 0xc2, 0x7c, 0x08, 0xc0, 0x3d, 0x6a, 0xfe, 0x7f, 0x06, 0xa7, 
0x67, 0x37, 0x4e, 0xda, 0xff, 0x0f, 0x00, 0x97, 0x07, 0x00, 0x88, 0x86, 0x88, 0x66, 0xac, 0x84, 
0xbd, 0xc4, 0x98, 0x03, 0x7c, 0xb1, 0x64, 0x78, 0x3a, 0x67, 0x3e, 0x96, 0x10, 0xfe, 0xdf, 0xff, 
0x4f, 0x5d, 0xdc, 0x2f, 0x19, 0x0d, 0x6b, 0x3e, 0x40, 0x81, 0x02, 0x00, 0x05, 0x0c, 0x00, 0x00, 
0x72, 0x09, 0xd2, 0x2c, 0xac, 0x12, 0xd8, 0x27, 0xff, 0x5f, 0x5e, 0x15, 0x60, 0x73, 0x7c, 0xad, 
0x77, 0xfd, 0xff, 0xbf, 0x21, 0x34, 0x5a, 0xd4, 0xfb, 0x07, 0x00, 0xe0, 0x4b, 0x24, 0x31, 0x02, 
0x48, 0x3c, 0x2a, 0xa5, 0x17, 0xd8, 0x15, 0x48, 0x2d, 0xf0, 0x7f, 0x0d, 0xc9, 0x84, 0xc9, 0x65, 
0xa1, 0x5c, 0xff, 0x9f, 0x45, 0xcc, 0xeb, 0x30, 0xf6, 0xff, 0x10, 0xf0, 0xc0, 0x02, 0x00, 0x30, 
0x4a, 0x7f, 0xc4, 0xa7, 0xa1, 0xa9, 0x4e, 0x21, 0x02, 0x3c, 0xa2, 0xd4, 0x88, 0x1e, 0xd7, 0x03, 
0xaa, 0xfa, 0xff, 0xdd, 0xff, 0xd7, 0x38, 0x6e, 0x3a, 0xb9, 0x3d, 0x80, 0x44, 0x03, 0x44, 0xab, 
0xee, 0xd7, 0x5e, 0x9e, 0x75, 0x6e, 0x29, 0x28, 0xc8, 0x00, 0xb0, 0xae, 0x9c, 0x37, 0xdc, 0x29, 
0xfd, 0xbf, 0xc8, 0xb4, 0x7a, 0xc3, 0x08, 0x93, 0xff, 0xbf, 0x2d, 0x92, 0x73, 0x56, 0xb6, 0x8e, 
0x7f, 0x48, 0x0f, 0x00, 0x18, 0x2d, 0x18, 0x00, 0x80, 0x32, 0x6b, 0x1a, 0x42, 0x03, 0xa8, 0x5e, 
0xf8, 0x3f, 0x9d, 0xfb, 0xe2, 0x01, 0x31, 0x77, 0xaf, 0xf0, 0xa4, 0xfa, 0x7f, 0x9e, 0xdb, 0x5c, 
0x6f, 0xce, 0xff, 0x5f, 0x40, 0x0c, 0x38, 0x45, 0x8b, 0x00, 0xf0, 0xa3, 0x00, 0x20, 0x21, 0x0b, 
0x00, 0x8f, 0x2a, 0xe7, 0xa2, 0x34, 0xf7, 0x1c, 0xea, 0xec, 0xff, 0x57, 0x89, 0x42, 0x34, 0x08, 
0xf4, 0x1e, 0x4f, 0xff, 0xcf, 0x47, 0x29, 0x22, 0x25, 0xfd, 0x00, 0xb6, 0x06, 0x00, 0x99, 0x06, 
0x05, 0x80, 0xd5, 0x3f, 0xf2, 0xd4, 0x10, 0x10, 0x0b, 0xec, 0xf6, 0xcc, 0xd7, 0x84, 0x6b, 0xf1, 
0xff, 0xab, 0xb8, 0x17, 0x59, 0x06, 0xc8, 0xff, 0xff, 0x07, 0xda, 0x06, 0x00, 0x63, 0xe7, 0x0a, 
0x60, 0x93, 0x78, 0xb5, 0xa5, 0x03, 0xd9, 0xc0, 0x2f, 0xb4, 0xe1, 0xc8, 0xad, 0x28, 0x15, 0xfc, 
0x77, 0x3f, 0x16, 0xc4, 0xe5, 0xcd, 0x5a, 0xfd, 0x7f, 0xf9, 0xff, 0xbb, 0xb7, 0x9a, 0x80, 0x88, 
0x00, 0xc0, 0xef, 0x03, 0x01, 0x48, 0xdd, 0x15, 0x19, 0x53, 0xca, 0x4c, 0x98, 0xf5, 0x0e, 0x0a, 
0xc0, 0x6b, 0x2c, 0x83, 0xef, 0xc0, 0x8f, 0xf9, 0x7f, 0xb8, 0xbe, 0x7a, 0x64, 0x82, 0x36, 0xff, 
0xff, 0x01, 0x56, 0x1d, 0x00, 0x64, 0x24, 0x85, 0x0a, 0x4f, 0x9c, 0x0e, 0x76, 0x2e, 0x00, 0xac, 
0x7c, 0xd3, 0x49, 0xc6, 0xb6, 0xb1, 0x21, 0x1a, 0xfe, 0x9f, 0x0c, 0x58, 0x84, 0x2b, 0x94, 0x14, 
0xa2, 0xff, 0xff, 0x1f, 0x3a, 0x1c, 0x00, 0xd0, 0x04, 0x07, 0x05, 0x75, 0x42, 0xd0, 0xa4, 0x84, 
0xbf, 0xd1, 0x09, 0xfe, 0x71, 0x28, 0x79, 0x0f, 0xc1, 0x3d, 0x38, 0xff, 0x1f, 0x44, 0x21, 0xfc, 
0x97, 0xf8, 0xfa, 0xff, 0x03, 0x40, 0x31, 0xed, 0xfa, 0x17, 0x80, 0x01, 0x81, 0xe0, 0x60, 0x14, 
0xf8, 0x01, 0x0d, 0xe0, 0x11, 0xaa, 0xb5, 0x3d, 0x3a, 0x6a, 0x9c, 0xe2, 0xff, 0xa3, 0xc3, 0x60, 
0xdc, 0xf8, 0x66, 0x11, 0x55, 0xfc, 0xff, 0x2a, 0x2a, 0x4e, 0x97, 0x55, 0xfe, 0x0f, 0x00, 0x00, 
0xbb, 0x85, 0x5c, 0x85, 0x01, 0x50, 0x3e, 0x80, 0xaf, 0xdf, 0x80, 0xac, 0xae, 0xfe, 0x7f, 0x56, 
0x0a, 0x0d, 0xf4, 0x20, 0xa1, 0xcc, 0xff, 0xaf, 0xe9, 0xa2, 0x85, 0xde, 0xf8, 0x07, 0x80, 0x50, 
0xcb, 0x00, 0x00, 0x30, 0xd3, 0x9c, 0x82, 0x60, 0x3a, 0xee, 0x75, 0xa0, 0x32, 0x02, 0xfe, 0x57, 
0x44, 0x6b, 0x81, 0xd1, 0x2e, 0x94, 0xff, 0xff, 0x21, 0xd6, 0x95, 0xa1, 0x40, 0xff, 0x0f, 0x00, 
0xd4, 0x70, 0x00, 0xa0, 0x7d, 0x38, 0x75, 0xe4, 0x69, 0x41, 0x0c, 0x00, 0x2f, 0x25, 0x85, 0x61, 
0xc8, 0x8f, 0xcf, 0x38, 0xa0, 0xf2, 0xff, 0xfa, 0x7f, 0x59, 0xc2, 0xa1, 0x63, 0xac, 0x05, 0xc5, 
0x03, 0x90, 0x32, 0x00, 0x44, 0x6b, 0x07, 0x00, 0xa0, 0x40, 0xc8, 0xc3, 0x4b, 0x14, 0x47, 0xb8, 
0xf2, 0xff, 0x3b, 0xcb, 0xdc, 0xc0, 0x74, 0xc5, 0xb7, 0xc3, 0xff, 0xef, 0xd6, 0x72, 0xbe, 0xbc, 
0xfe, 0x23, 0x7b, 0x03, 0x80, 0xa8, 0x6a, 0x00, 0x40, 0xc8, 0xe0, 0x79, 0xe1, 0x22, 0x00, 0xb2, 
0x0c, 0xff, 0xbd, 0xc7, 0xb2, 0x75, 0x30, 0xbe, 0xa1, 0x5b, 0x87, 0xfe, 0x3f, 0x8a, 0x24, 0xff, 
0x6b, 0xfd, 0xff, 0xcb, 0xcf, 0x95, 0x60, 0xaa, 0xbc, 0x04, 0x80, 0x7e, 0x01, 0x80, 0x68, 0xb9, 
0xd7, 0x12, 0x87, 0x2b, 0xa1, 0x31, 0x7d, 0x2a, 0x80, 0xcf, 0x52, 0x78, 0x5a, 0xeb, 0x25, 0x09, 
0xf8, 0xff, 0x47, 0xf9, 0x6f, 0xbe, 0x37, 0xca, 0xff, 0x87, 0xca, 0x53, 0x82, 0xa0, 0x15, 0x2f, 
0x1e, 0x00, 0x00, 0x94, 0x69, 0x45, 0x3a, 0x00, 0xa8, 0xe0, 0xac, 0xe1, 0x49, 0x55, 0xd9, 0x94, 
0xfe, 0x5f, 0x17, 0x36, 0xec, 0x45, 0xf7, 0xaf, 0xff, 0x7f, 0xb9, 0x4d, 0xd8, 0xec, 0x47, 0xff, 
0x08, 0x00, 0x4d, 0xa3, 0x66, 0x03, 0x00, 0x04, 0x49, 0x04, 0x41, 0xd6, 0xc2, 0x59, 0x58, 0xf0, 
0x1f, 0x80, 0xc8, 0xdf, 0xbd, 0xe4, 0xc4, 0xae, 0xff, 0x5f, 0x0a, 0x3d, 0x26, 0x27, 0x8a, 0xa9, 
0xfe, 0x7f, 0x02, 0xad, 0x46, 0x40, 0x10, 0x08, 0x15, 0xe0, 0x49, 0xaf, 0x07, 0x32, 0xb8, 0x52, 
0x49, 0x90, 0x6a, 0xff, 0x0f, 0x0c, 0xe1, 0xee, 0xe6, 0x36, 0xcd, 0x3a, 0xfe, 0xdf, 0x22, 0x27, 
0x0c, 0xf1, 0x1a, 0x39, 0xd2, 0x3e, 0x08, 0x00, 0x3a, 0x1a, 0x00, 0xaa, 0xc2, 0x95, 0x67, 0x88, 
0x34, 0xf4, 0xc2, 0x15, 0xe4, 0xff, 0x45, 0x75, 0x39, 0xac, 0xc4, 0xdc, 0xfe, 0x1f, 0xac, 0x09, 
0xbc, 0x54, 0x96, 0xfe, 0xf9, 0x0f, 0x00, 0xb0, 0xb0, 0x00, 0x20, 0xb2, 0x27, 0xf0, 0x00, 0xeb, 
0xe9, 0xa8, 0xb3, 0x35, 0xf8, 0x17, 0x9a, 0x2c, 0xe3, 0xc0, 0x6e, 0xfc, 0xc8, 0xc6, 0xff, 0x83, 
0xff, 0xdf, 0x23, 0xe6, 0x31, 0x9c, 0x2d, 0x04, 0x33, 0x00, 0x50, 0x22, 0x00, 0xe8, 0x70, 0x02, 
0xf8, 0x34, 0xcb, 0x9c, 0x98, 0x2b, 0x63, 0x6b, 0xfc, 0xff, 0x33, 0x60, 0x4c, 0x97, 0x56, 0xb6, 
0x48, 0xfd, 0x3f, 0xe8, 0xf0, 0x35, 0x56, 0xc3, 0x78, 0x80, 0x00, 0x04, 0x84, 0x50, 0x09, 0x00, 
0xee, 0xe2, 0x5b, 0x56, 0x9c, 0x15, 0x5b, 0xd0, 0x83, 0xff, 0x0f, 0xd6, 0xd9, 0x89, 0x85, 0xf5, 
0xf3, 0xff, 0xbf, 0x49, 0x85, 0x40, 0x8a, 0x0b, 0x74, 0xfe, 0x03, 0x00, 0xe4, 0x00, 0x00, 0x40, 
0x41, 0x55, 0x30, 0x6e, 0x61, 0xe4, 0xc6, 0x4d, 0xa6, 0x2c, 0xad, 0xf0, 0x2f, 0x78, 0x02, 0x3d, 
0x74, 0x06, 0xb9, 0xff, 0x27, 0xca, 0x7f, 0xa4, 0x46, 0xc7, 0xca, 0xfc, 0x3f, 0x00, 0xec, 0xb2, 
0x00, 0x00, 0xaa, 0x2e, 0xc2, 0x47, 0x64, 0xae, 0x9c, 0x09, 0x3f, 0x49, 0x12, 0x8c, 0xf4, 0xff, 
0xf0, 0xae, 0x48, 0xb2, 0x32, 0xa6, 0xe4, 0xff, 0x47, 0x23, 0x90, 0x14, 0x93, 0x92, 0x41, 0xce, 
0x03, 0x00, 0xc0, 0xf4, 0x8b, 0xfa, 0xc6, 0x00, 0x98, 0x22, 0x06, 0xf2, 0xe3, 0x5c, 0x39, 0x10, 
0xfd, 0xff, 0x31, 0x56, 0x50, 0x83, 0xe3, 0xf3, 0xff, 0x9d, 0x99, 0xcc, 0x7d, 0xea, 0x27, 0x90, 
0x7f, 0x00, 0x80, 0x95, 0x10, 0x00, 0x00, 0xc3, 0xb9, 0xe2, 0x81, 0xb2, 0x78, 0x29, 0x4f, 0x4a, 
0xe9, 0xc1, 0x3f, 0x61, 0xae, 0x03, 0x45, 0x4a, 0xbb, 0xc3, 0xff, 0x77, 0x8f, 0x6d, 0xaf, 0x58, 
0x84, 0xf8, 0xfd, 0x3f, 0x00, 0x44, 0x1b, 0x00, 0xa2, 0x48, 0x05, 0xf0, 0x9c, 0xa5, 0x04, 0x26, 
0x21, 0xc1, 0x99, 0x93, 0xfc, 0x3f, 0x6c, 0xbf, 0x15, 0xff, 0x66, 0x11, 0xe4, 0xff, 0xb5, 0x32, 
0x06, 0x71, 0x74, 0x68, 0x28, 0x0f, 0x40, 0x98, 0x00, 0x80, 0x52, 0x00, 0x20, 0x07, 0x7a, 0x78, 
0xd4, 0x0a, 0x6a, 0x1b, 0xee, 0xcc, 0xff, 0x13, 0x7e, 0xec, 0x21, 0x25, 0x53, 0xe6, 0xff, 0xb7, 
0xd1, 0x04, 0xce, 0xa9, 0x54, 0x6d, 0xfe, 0x01, 0x00, 0x00, 0x65, 0x9a, 0x02, 0x80, 0x8e, 0x5a, 
0x51, 0x3f, 0x28, 0xe6, 0x6a, 0x81, 0xc0, 0x3f, 0x08, 0x0d, 0xad, 0xb8, 0x13, 0xff, 0x7f, 0x47, 
0x20, 0x86, 0x84, 0xd1, 0x4d, 0xa4, 0xff, 0x9f, 0x04, 0x9a, 0x01, 0x00, 0x80, 0xc5, 0x02, 0x3c, 
0x0d, 0x9b, 0xcd, 0xfd, 0xdd, 0xcd, 0x0c, 0x08, 0x61, 0xf9, 0xff, 0x90, 0x20, 0x2c, 0x89, 0x77, 
0x9e, 0xfd, 0x3f, 0xf0, 0x91, 0x5d, 0xf6, 0x15, 0x13, 0xe3, 0x01, 0x80, 0x12, 0x00, 0xe8, 0x14, 
0x00, 0x40, 0xef, 0x8f, 0x82, 0xf3, 0xa5, 0x84, 0x0d, 0xcf, 0xf9, 0xff, 0x08, 0x75, 0xbc, 0xfc, 
0x91, 0x45, 0x0c, 0xfc, 0xff, 0x51, 0x58, 0x13, 0x93, 0x97, 0x7d, 0xf6, 0x1f, 0x00, 0x20, 0x85, 
0x2f, 0x6a, 0x00, 0x00, 0x24, 0x4e, 0x0e, 0x24, 0xe6, 0x55, 0x1f, 0xfc, 0x13, 0x22, 0x3d, 0x3d, 
0xf2, 0x28, 0x6d, 0xa5, 0xd0, 0xff, 0x87, 0x0c, 0x97, 0x92, 0x0a, 0xc7, 0xf0, 0xff, 0x00, 0x20, 
0xd3, 0x29, 0x00, 0x14, 0x42, 0x50, 0x06, 0x73, 0xf4, 0x28, 0x01, 0x80, 0x7f, 0x54, 0x0c, 0x2d, 
0x1a, 0x66, 0x4b, 0x8e, 0xd5, 0xfe, 0x7f, 0x90, 0xff, 0x77, 0x44, 0x98, 0xdd, 0x02, 0x0d, 0x84, 
0x3d, 0x80, 0x66, 0x00, 0x00, 0x4c, 0x73, 0x00, 0x08, 0x6c, 0x0f, 0x82, 0xb8, 0x1f, 0xb6, 0x24, 
0x52, 0xf1, 0xff, 0xcb, 0x27, 0x70, 0x56, 0x09, 0x9d, 0xe2, 0xfc, 0xff, 0x4d, 0xb8, 0xf0, 0x8c, 
0x74, 0x8e, 0xf8, 0x47, 0x60, 0xa0, 0xd6, 0x7c, 0xda, 0x00, 0x00, 0xc0, 0xf8, 0x1e, 0xc5, 0x7a, 
0xc6, 0x07, 0xf0, 0x0f, 0x56, 0xa1, 0x19, 0x7d, 0x3f, 0x86, 0xe7, 0xe5, 0xff, 0x5f, 0x2e, 0x70, 
0x4b, 0x38, 0x02, 0x8e, 0xf5, 0xff, 0x01, 0x20, 0xa1, 0x00, 0x20, 0xd0, 0x04, 0xe0, 0xcb, 0xa9, 
0xee, 0x0e, 0x49, 0x3c, 0x34, 0xfd, 0x91, 0xff, 0x0f, 0x68, 0x18, 0xc5, 0x73, 0x9a, 0x7a, 0xfb, 
0xff, 0x19, 0x41, 0xa2, 0x2d, 0x00, 0x3d, 0x96, 0xe6, 0x01, 0x22, 0x0b, 0x00, 0x12, 0x55, 0x01, 
0x00, 0x55, 0xd7, 0x05, 0xfb, 0xa3, 0x68, 0xc0, 0xf0, 0xfe, 0x1f, 0x3c, 0xdb, 0x8d, 0x28, 0x3b, 
0x50, 0xe3, 0xff, 0x49, 0xbe, 0xab, 0x38, 0x18, 0xaf, 0x09, 0xff, 0x00, 0x00, 0x8b, 0x2c, 0x00, 
0x40, 0xc9, 0x1d, 0xe8, 0xa8, 0xae, 0xbe, 0x67, 0xac, 0x94, 0x53, 0x84, 0x7f, 0x4e, 0xaa, 0x11, 
0x4d, 0xb1, 0xa1, 0xc3, 0xff, 0x47, 0x69, 0xfc, 0xb7, 0x0c, 0x8e, 0xff, 0x0f, 0x00, 0x52, 0x01, 
0x00, 0x30, 0x55, 0x00, 0x8f, 0x9f, 0x69, 0xe0, 0x73, 0xa8, 0xa9, 0x23, 0x4d, 0xed, 0xfd, 0x3f, 
0xa0, 0x44, 0x1a, 0xa6, 0x43, 0x54, 0xfb, 0xff, 0x24, 0x4f, 0x0b, 0xbb, 0xb5, 0x6c, 0xe3, 0x03, 
0x98, 0x1f, 0x00, 0x00, 0xd0, 0x3b, 0x00, 0x04, 0xac, 0xca, 0x24, 0x20, 0x47, 0x6b, 0x5a, 0x32, 
0x88, 0xfe, 0xff, 0x29, 0x8e, 0xf2, 0x04, 0x1f, 0xc3, 0x10, 0xff, 0x5f, 0x03, 0x2e, 0x7a, 0x30, 
0xba, 0xfe, 0x01, 0x00, 0xc2, 0x94, 0x9d, 0x0e, 0x00, 0x30, 0x52, 0xd3, 0x9a, 0xa1, 0xf3, 0x9b, 
0x35, 0x23, 0xf8, 0x07, 0x28, 0xa4, 0x49, 0x3d, 0x56, 0x72, 0xfd, 0x7f, 0x66, 0xaa, 0xa1, 0xb1, 
0x54, 0xf7, 0x11, 0xfd, 0x3f, 0x00, 0xd4, 0x2c, 0x00, 0x02, 0xf0, 0x0c, 0xe0, 0x01, 0x48, 0xb2, 
0x1a, 0xf3, 0x84, 0x77, 0x63, 0x35, 0xc3, 0xff, 0x0f, 0xa1, 0xbb, 0xd9, 0x62, 0xb4, 0xc2, 0x84, 
0xfa, 0xff, 0xbe, 0x64, 0x6e, 0x62, 0x6d, 0x72, 0x84, 0x07, 0x00, 0x80, 0x25, 0x43, 0x5f, 0x1c, 
0x00, 0x30, 0x1d, 0x98, 0x93, 0x3d, 0xcc, 0x44, 0x87, 0x82, 0xff, 0xbf, 0xec, 0xf0, 0x56, 0x43, 
0xa1, 0xfc, 0xff, 0x1e, 0xb5, 0x2b, 0xab, 0x8f, 0x7e, 0xff, 0x00, 0x00, 0xa8, 0x99, 0xaa, 0x16, 
0x00, 0x88, 0x5e, 0xd7, 0xb2, 0x6a, 0x6c, 0x5f, 0x48, 0x16, 0xfc, 0x57, 0x11, 0x04, 0x72, 0x3c, 
0xe2, 0x5f, 0xfe, 0x7f, 0x46, 0x36, 0x70, 0x6d, 0x91, 0xfc, 0x3f, 0x00, 0xb4, 0x2c, 0xcb, 0xe5, 
0x00, 0x40, 0xe0, 0xc5, 0x7b, 0x6b, 0xd9, 0x18, 0xa7, 0x12, 0xe0, 0x65, 0xd6, 0x6f, 0x71, 0x8c, 
0x44, 0xc1, 0x93, 0x99, 0xfd, 0x3f, 0x8a, 0x6c, 0x50, 0x56, 0xfd, 0x85, 0xfe, 0xbf, 0xb1, 0xb5, 
0x78, 0x84, 0xf0, 0x9a, 0x07, 0x00, 0x80, 0x9b, 0xa0, 0x8a, 0x16, 0x00, 0xa0, 0xd8, 0x9b, 0x48, 
0x76, 0x9b, 0x72, 0x12, 0xfe, 0xff, 0x81, 0x24, 0x7e, 0x57, 0xb1, 0xed, 0x34, 0xdb, 0xff, 0x0b, 
0x33, 0x0b, 0xa8, 0x7a, 0xd8, 0x26, 0xe1, 0x3f, 0x00, 0x40, 0x25, 0x41, 0x40, 0x6a, 0xdb, 0xf8, 
0x07, 0x06, 0x4a, 0xd5, 0x37, 0xa9, 0x58, 0xe2, 0xff, 0xfd, 0x25, 0xdf, 0xa6, 0x5e, 0x7b, 0xf8, 
0x7f, 0x00, 0xb0, 0x7c, 0x45, 0x5a, 0x02, 0x80, 0x14, 0xb0, 0x30, 0x45, 0xed, 0x01, 0xc1, 0x09, 
0xe0, 0x69, 0xc5, 0x13, 0xaa, 0x30, 0x31, 0x45, 0x94, 0xf9, 0xff, 0x51, 0x73, 0x5c, 0x95, 0x46, 
0x93, 0x1f, 0xfc, 0x3f, 0xad, 0x9d, 0xb8, 0xcd, 0xb0, 0xbf, 0x0f, 0x00, 0x00, 0x6b, 0x60, 0xc8, 
0x21, 0x00, 0x48, 0x13, 0x02, 0x54, 0x7f, 0x59, 0x0f, 0x29, 0xfa, 0x7f, 0x84, 0xdb, 0x76, 0x7e, 
0xc6, 0x93, 0x76, 0xff, 0x7f, 0xf0, 0x31, 0xa2, 0x11, 0xe6, 0x5e, 0xfc, 0x1f, 0x00, 0x61, 0x2a, 
0x01, 0xc0, 0x6e, 0x68, 0x8e, 0x22, 0x0e, 0x31, 0x2b, 0x0f, 0x21, 0xe1, 0xff, 0xa1, 0xb8, 0x13, 
0x3a, 0x48, 0xe1, 0xff, 0x47, 0xc3, 0xa1, 0x28, 0x85, 0xfb, 0xff, 0x03, 0x80, 0x8a, 0x00, 0xc0, 
0xd4, 0xbf, 0x00, 0x40, 0xcf, 0x81, 0x1b, 0x29, 0x14, 0x02, 0xbc, 0x4c, 0x48, 0xe5, 0xb0, 0x26, 
0x49, 0xb3, 0x65, 0xfe, 0x1f, 0xfd, 0xff, 0x8b, 0x27, 0x44, 0x8b, 0x1b, 0x67, 0x1f, 0x70, 0x61, 
0x00, 0xc4, 0xf6, 0x1d, 0x00, 0xa0, 0x70, 0x14, 0x66, 0x09, 0xe4, 0x4a, 0x2d, 0xf0, 0xff, 0x74, 
0x59, 0x2c, 0x67, 0x83, 0x0b, 0xdf, 0xff, 0xc7, 0xfe, 0x7e, 0x0b, 0xab, 0x1e, 0xe0, 0xfe, 0xc1, 
0xd1, 0x00, 0xa0, 0x51, 0x2d, 0x00, 0x20, 0x34, 0xf1, 0xf2, 0x8c, 0xdc, 0x3c, 0x36, 0xc2, 0xbf, 
0x48, 0x64, 0x3b, 0x49, 0x42, 0x11, 0x3b, 0xfd, 0x7f, 0x22, 0xa2, 0xb4, 0x3e, 0x86, 0x47, 0xe0, 
0xff, 0x01, 0xa0, 0xbb, 0xb2, 0x6a, 0x09, 0x00, 0x4a, 0xe1, 0x0c, 0x20, 0x2e, 0xfd, 0x85, 0x04, 
0x79, 0xd3, 0x43, 0xed, 0x6d, 0x19, 0xae, 0x9a, 0xf2, 0xff, 0x29, 0xa4, 0xa4, 0xb9, 0xd0, 0xb4, 
0xe6, 0xfe, 0x5f, 0x21, 0x05, 0x79, 0x71, 0x4a, 0xf5, 0x07, 0x10, 0x04, 0x97, 0xc2, 0xa3, 0x05, 
0x00, 0x46, 0x5b, 0xa6, 0xa3, 0xa4, 0x76, 0xd4, 0xc5, 0xff, 0x47, 0x16, 0x9f, 0x03, 0x6f, 0x9e, 
0x39, 0xf8, 0x7f, 0x9a, 0x13, 0xe0, 0xd4, 0x04, 0xca, 0xd9, 0x3f, 0x00, 0xc0, 0x35, 0x06, 0x40, 
0x03, 0x69, 0x76, 0xc5, 0x96, 0xc6, 0xe5, 0x1a, 0x27, 0x2a, 0xfc, 0x57, 0xf4, 0x5c, 0x85, 0x4f, 
0x80, 0xf1, 0xff, 0x22, 0x95, 0x8d, 0xbe, 0xc6, 0xe7, 0xff, 0x01, 0xc0, 0x7b, 0x00, 0x40, 0x80, 
0x32, 0x46, 0x18, 0x80, 0x74, 0x23, 0xa1, 0xa1, 0x07, 0xf0, 0xfc, 0xd4, 0xaa, 0xea, 0x63, 0xfa, 
0x68, 0xd6, 0xff, 0x93, 0xff, 0x8f, 0x5f, 0xae, 0x42, 0x0c, 0xea, 0xd4, 0x03, 0x6c, 0xad, 0x00, 
0xc0, 0x70, 0x0d, 0x00, 0x04, 0x2c, 0xa1, 0x76, 0x7e, 0xdb, 0xe6, 0x28, 0xcd, 0xff, 0x83, 0x59, 
0xc3, 0xba, 0xe8, 0x96, 0x1a, 0xd8, 0xff, 0x43, 0x60, 0xe8, 0x2a, 0xb3, 0xb6, 0x1b, 0xcf, 0x3f, 
0x20, 0x00, 0x6d, 0x40, 0x00, 0xc0, 0x32, 0x5a, 0xf6, 0xf5, 0x3e, 0x6e, 0x30, 0x34, 0x80, 0xff, 
0x9b, 0xfb, 0xd9, 0x0c, 0x5b, 0x8f, 0xb8, 0x07, 0xde, 0xff, 0xc7, 0xff, 0x3f, 0x4d, 0x4c, 0x75, 
0x6e, 0x02, 0x03, 0x00, 0x70, 0x08, 0x20, 0xc0, 0x87, 0x01, 0x3c, 0x70, 0x94, 0x26, 0x9b, 0x0d, 
0x11, 0xcf, 0xf3, 0x46, 0xec, 0xff, 0x85, 0x46, 0xb3, 0x98, 0xe4, 0x5d, 0x8f, 0xe3, 0xff, 0xcb, 
0x78, 0x27, 0x7a, 0x75, 0xf7, 0x5c, 0x0f, 0x00, 0x00, 0x8a, 0x22, 0x00, 0xe0, 0x8f, 0x2b, 0xbd, 
0xc6, 0xb8, 0x7d, 0x0e, 0x0b, 0xfc, 0xff, 0x54, 0x2a, 0x04, 0xee, 0xa6, 0xb1, 0xc4, 0xff, 0xff, 
0xc3, 0xd8, 0x02, 0x80, 0x20, 0x1f, 0x00, 0x00, 0x80, 0x80, 0x74, 0x44, 0x03, 0xbd, 0x34, 0x5a, 
0x2e, 0xfc, 0x03, 0x09, 0x59, 0xb9, 0x3a, 0x9b, 0xb5, 0xb1, 0xe3, 0xff, 0x6d, 0x65, 0x1d, 0x5e, 
0xeb, 0x42, 0x32, 0xff, 0x0f, 0x00, 0xa8, 0x03, 0x00, 0x00, 0xf4, 0xbb, 0x32, 0x2c, 0x6e, 0xbd, 
0xb4, 0x05, 0x45, 0x00, 0x0f, 0x2e, 0x12, 0x1a, 0xc5, 0x54, 0xf3, 0x97, 0x97, 0xff, 0x0f, 0xff, 
0xdf, 0x25, 0x16, 0xd9, 0x4c, 0x72, 0xec, 0x07, 0xc0, 0x44, 0x00, 0x20, 0x07, 0x03, 0x00, 0x6a, 
0x56, 0x9c, 0x4a, 0xa3, 0x25, 0xc1, 0xb5, 0xc9, 0xff, 0x47, 0x48, 0x39, 0xb6, 0x9c, 0xc8, 0xd2, 
0xfb, 0x7f, 0x3d, 0x81, 0x45, 0xb1, 0x46, 0x76, 0xc6, 0x3f, 0x84, 0x00, 0x00, 0xec, 0x33, 0x00, 
0x50, 0xad, 0x8b, 0x16, 0x53, 0x5a, 0x82, 0xc1, 0xc4, 0xe0, 0xdf, 0xe6, 0x51, 0x66, 0x0e, 0xb7, 
0x0a, 0xe9, 0xff, 0xdb, 0x95, 0x80, 0x0c, 0x13, 0xe3, 0xfb, 0x7f, 0xf4, 0xac, 0xd1, 0x3c, 0x8c, 
0x3a, 0x00, 0x40, 0x53, 0x01, 0xa0, 0x94, 0x43, 0x80, 0x0f, 0x83, 0x42, 0x36, 0xdc, 0xf5, 0xc4, 
0x9c, 0xff, 0x5f, 0x32, 0xca, 0x78, 0xaf, 0x67, 0xbb, 0xde, 0xfb, 0xff, 0xd6, 0x96, 0x4c, 0x3a, 
0xc0, 0x89, 0x1f, 0x20, 0xc0, 0x00, 0x80, 0xd1, 0x0a, 0x01, 0x87, 0x3a, 0xb8, 0x85, 0x1e, 0x59, 
0x91, 0x84, 0x90, 0xfe, 0xff, 0xcc, 0x88, 0x1a, 0xdc, 0x47, 0xf1, 0xff, 0x95, 0x2e, 0xf0, 0x0d, 
0x22, 0xeb, 0x3f, 0x00, 0x40, 0x51, 0x86, 0xd1, 0x00, 0x02, 0x91, 0xb0, 0xf7, 0x18, 0x64, 0x2a, 
0x5b, 0x0e, 0xb9, 0xf8, 0x0f, 0x2b, 0xb6, 0x09, 0x62, 0x0f, 0xc1, 0xf8, 0xff, 0xaf, 0xd8, 0x79, 
0x30, 0x0f, 0xf9, 0x37, 0xff, 0x3f, 0x40, 0x9c, 0x2e, 0x00, 0x50, 0x93, 0x11, 0xc1, 0xef, 0x20, 
0x74, 0x39, 0x46, 0x9c, 0xb0, 0xfe, 0x3f, 0x8b, 0xf2, 0x83, 0x37, 0x04, 0x09, 0xff, 0xcf, 0x61, 
0xcb, 0x4a, 0x16, 0xc3, 0xd4, 0x03, 0x9c, 0x18, 0x00, 0x30, 0x50, 0x02, 0x00, 0x99, 0x82, 0x52, 
0xb1, 0xf6, 0xab, 0xd7, 0x69, 0xfe, 0x1f, 0xb4, 0x97, 0x8c, 0x12, 0x89, 0xb0, 0x43, 0xfd, 0x3f, 
0xfd, 0xe7, 0x0a, 0x31, 0x75, 0x38, 0xe4, 0x1f, 0x00, 0xe0, 0xc5, 0x84, 0x03, 0x05, 0x00, 0xec, 
0x80, 0x62, 0x84, 0xd8, 0x72, 0x96, 0x69, 0xc0, 0xbf, 0x68, 0x48, 0xf7, 0x83, 0x37, 0xbb, 0xe9, 
0xff, 0x41, 0x8d, 0xf8, 0x8f, 0xd6, 0x62, 0x68, 0xff, 0x0f, 0x80, 0xaa, 0x08, 0x00, 0x73, 0xd0, 
0x84, 0xd7, 0xd4, 0x3f, 0x37, 0x3f, 0x05, 0xf8, 0xd9, 0x96, 0x14, 0xdf, 0x7a, 0xa6, 0x16, 0xbe, 
0xfe, 0x3f, 0xf8, 0xff, 0x3b, 0x7f, 0xd0, 0xb9, 0x9e, 0x86, 0x7f, 0x00, 0xe4, 0x00, 0x80, 0xd0, 
0x29, 0x00, 0xc8, 0xb8, 0x25, 0x10, 0xd8, 0x0b, 0xa2, 0x5a, 0x0a, 0x3d, 0x66, 0xbc, 0xeb, 0xb2, 
0x42, 0xf7, 0xff, 0x4b, 0x38, 0xf2, 0x1e, 0x8c, 0xa6, 0xf3, 0xff, 0xff, 0xb0, 0x27, 0x00, 0xa0, 
0x66, 0x50, 0x00, 0x00, 0xa1, 0x34, 0xc2, 0x43, 0x71, 0x0c, 0x86, 0x7f, 0xe8, 0x39, 0xf4, 0x4a, 
0xd1, 0x5b, 0xc5, 0xb6, 0xff, 0x37, 0x83, 0x2d, 0xed, 0x70, 0x2f, 0xb8, 0x98, 0xff, 0x07, 0x00, 
0x61, 0x23, 0x6a, 0x03, 0x00, 0xc8, 0x25, 0xb0, 0xfd, 0x82, 0xd4, 0x6e, 0x4e, 0xa1, 0x01, 0x9e, 
0xf2, 0x5c, 0xaa, 0x9d, 0xaf, 0x9b, 0x1b, 0xff, 0xbf, 0x7f, 0x7e, 0x72, 0xa1, 0x87, 0xb5, 0xff, 
0x7f, 0x00, 0xf7, 0x04, 0x00, 0x61, 0x37, 0x0b, 0x22, 0x6c, 0x5a, 0x52, 0xc7, 0x6d, 0x88, 0x02, 
0x80, 0xde, 0x76, 0xd4, 0x43, 0x50, 0xce, 0x10, 0xad, 0xff, 0xaf, 0x61, 0x2e, 0x58, 0x99, 0x17, 
0x58, 0xf1, 0xff, 0x15, 0xf3, 0xe1, 0xac, 0xa4, 0xe2, 0x1f, 0x02, 0x60, 0xc2, 0xdb, 0x12, 0x04, 
0x00, 0x60, 0x98, 0xad, 0x8d, 0xca, 0xbd, 0x78, 0xf8, 0x07, 0x58, 0xe7, 0xed, 0x70, 0xf9, 0xd6, 
0x77, 0xcc, 0xff, 0x2f, 0x8b, 0x34, 0x54, 0x02, 0xdb, 0x8b, 0xbe, 0xff, 0x07, 0x00, 0x87, 0x06, 
0x00, 0xa0, 0xa1, 0x00, 0x1e, 0x6b, 0x97, 0x5d, 0x03, 0x58, 0x35, 0xd2, 0xd3, 0x84, 0xfc, 0x3f, 
0x5c, 0xb1, 0x26, 0xcb, 0x43, 0x82, 0xf1, 0xff, 0xad, 0x24, 0x7f, 0xd7, 0x98, 0x97, 0x39, 0xfa, 
0x00, 0x00, 0x90, 0xe6, 0x06, 0x8c, 0x02, 0x80, 0x8e, 0x35, 0x09, 0x26, 0x57, 0x8f, 0x9f, 0xd3, 
0xff, 0x9f, 0xe1, 0xf0, 0xef, 0xbc, 0xd4, 0x76, 0xfe, 0x7f, 0x06, 0xe5, 0xe4, 0x9a, 0x65, 0xc2, 
0x7f, 0x00, 0x80, 0xba, 0x07, 0x04, 0x00, 0xfc, 0x07, 0xc5, 0xf6, 0x32, 0x45, 0x10, 0xd7, 0xca, 
0xea, 0x3e, 0xfc, 0x6f, 0xf2, 0xc4, 0xde, 0x39, 0x45, 0xf8, 0x7f, 0x19, 0x42, 0x3b, 0x2b, 0xfc, 
0x3f, 0x00, 0xac, 0x66, 0x29, 0x2a, 0x05, 0x80, 0x31, 0x42, 0xf8, 0x27, 0xeb, 0xc8, 0x1c, 0x02, 
0xf8, 0x7c, 0xcb, 0xaa, 0x25, 0x97, 0xd0, 0x60, 0x89, 0xfe, 0xbf, 0xb7, 0x12, 0x90, 0x76, 0x1a, 
0x9d, 0xff, 0x3f, 0x42, 0x46, 0x50, 0x04, 0xf9, 0x00, 0x20, 0x0f, 0x00, 0xc9, 0x6b, 0x00, 0x40, 
0x01, 0x18, 0x09, 0xb3, 0x5d, 0x7c, 0xfe, 0x02, 0xff, 0xbf, 0x11, 0x65, 0xa4, 0x53, 0x85, 0x41, 
0xef, 0xff, 0xf3, 0xde, 0x39, 0xed, 0x08, 0x8c, 0xfa, 0x87, 0x0a, 0x05, 0x80, 0x84, 0xe2, 0x00, 
0x70, 0x47, 0x40, 0x3c, 0x8f, 0x08, 0x11, 0xbc, 0x57, 0xf8, 0x87, 0xde, 0x44, 0x71, 0x96, 0xe2, 
0xa6, 0x0d, 0xff, 0x3f, 0xc3, 0x28, 0xbd, 0xce, 0x7c, 0xff, 0xbf, 0xf7, 0xa2, 0x0b, 0x74, 0xd4, 
0x01, 0xc0, 0x0f, 0x02, 0x00, 0xa9, 0x93, 0x00, 0x1e, 0x5d, 0x50, 0xe6, 0x25, 0xb1, 0xc6, 0x8c, 
0x7e, 0xfe, 0x7f, 0x91, 0x13, 0x80, 0x56, 0x57, 0x83, 0xff, 0xff, 0xcb, 0xde, 0x4b, 0x28, 0xfe, 
0xff, 0x07, 0x58, 0x6b, 0x00, 0x10, 0x49, 0x59, 0x00, 0x98, 0xd9, 0x11, 0xa7, 0x08, 0xad, 0xbc, 
0xc6, 0x33, 0x85, 0x39, 0xb8, 0x5e, 0xb9, 0xc1, 0xac, 0xfe, 0xbf, 0x0e, 0xb5, 0xb7, 0x15, 0xe3, 
0x0c, 0xe0, 0xff, 0xc7, 0x68, 0x39, 0x30, 0xa6, 0xfe, 0x01, 0x00, 0xca, 0x61, 0x81, 0x00, 0x63, 
0x53, 0x22, 0xfe, 0xc2, 0x89, 0xfd, 0x48, 0x9f, 0x85, 0xff, 0xca, 0xb6, 0xae, 0x8a, 0xf4, 0x96, 
0xf4, 0xff, 0x6b, 0x95, 0x6c, 0x8a, 0x49, 0xff, 0x0f, 0x00, 0xb6, 0x6e, 0xa9, 0x62, 0x00, 0x30, 
0x83, 0x37, 0xe8, 0x58, 0x8f, 0x0e, 0x1b, 0xe1, 0x2b, 0xce, 0x39, 0x6e, 0xae, 0x3a, 0x39, 0x15, 
0xfe, 0xff, 0x4f, 0x82, 0x69, 0x96, 0x08, 0xd7, 0xff, 0x1f, 0xd5, 0x9c, 0xc4, 0xf7, 0x3f, 0x80, 
0x16, 0x01, 0x00, 0xa9, 0x7a, 0x00, 0x10, 0x1a, 0x6c, 0x76, 0x72, 0x98, 0xeb, 0x1c, 0x33, 0xd4, 
0xff, 0x77, 0xf0, 0x2f, 0x99, 0xd1, 0x6f, 0x4b, 0xff, 0xff, 0x62, 0x49, 0x3b, 0x7b, 0x8d, 0xff, 
0xc1, 0xe0, 0x01, 0x20, 0x91, 0x05, 0x00, 0x08, 0x8f, 0xb0, 0xb7, 0xab, 0xa5, 0xb7, 0xb3, 0x10, 
0xfe, 0x99, 0xb8, 0xf6, 0x11, 0x22, 0xa5, 0x2c, 0xfc, 0xff, 0x49, 0x6a, 0xff, 0xc5, 0xb8, 0x91, 
0xfc, 0x7f, 0x00, 0xe8, 0x1a, 0x09, 0x00, 0x10, 0x45, 0x80, 0x13, 0xf9, 0xa0, 0x97, 0x61, 0x33, 
0x41, 0x00, 0x5e, 0xe7, 0x6f, 0xda, 0xe4, 0xaa, 0xe8, 0xff, 0xd3, 0x09, 0x53, 0x82, 0x67, 0x9f, 
0xd3, 0xff, 0xff, 0x40, 0x48, 0x22, 0x20, 0xaf, 0x2a, 0x00, 0xf8, 0x1f, 0x68, 0x4a, 0x13, 0x5b, 
0x74, 0xda, 0x4d, 0xff, 0x88, 0xed, 0xce, 0x4b, 0xff, 0x7f, 0x8e, 0x53, 0x42, 0x7e, 0x35, 0x9c, 
0xff, 0x5f, 0x21, 0x9f, 0xeb, 0x20, 0xc0, 0xff, 0x40, 0xae, 0x88, 0xb0, 0x14, 0x17, 0x00, 0x04, 
0xd1, 0xa1, 0x75, 0x32, 0xa8, 0x09, 0xa2, 0xe0, 0xdf, 0x39, 0x15, 0xc9, 0xc1, 0xae, 0x51, 0xb1, 
0xff, 0x27, 0xae, 0xb4, 0x52, 0x81, 0xb4, 0xe4, 0xff, 0x01, 0x80, 0x6c, 0x26, 0x00, 0xd8, 0x29, 
0xa5, 0xe8, 0x6b, 0x38, 0xd5, 0x45, 0x55, 0x0f, 0xc0, 0x1f, 0xd2, 0xd3, 0xeb, 0xb5, 0x16, 0xce, 
0x96, 0xd5, 0xff, 0x47, 0x72, 0x1b, 0x3f, 0x59, 0x45, 0xdf, 0xff, 0x57, 0x3c, 0xd8, 0xbb, 0x86, 
0xb4, 0x74, 0x9f, 0x00, 0x00, 0x31, 0x04, 0x00, 0x94, 0x1b, 0x49, 0xaa, 0x20, 0xd6, 0x38, 0x41, 
0x5a, 0xf4, 0xff, 0x07, 0x4b, 0x51, 0xbc, 0xd5, 0x1c, 0xfb, 0xff, 0x7f, 0xd0, 0x55, 0x00, 0x80, 
0x84, 0x08, 0x20, 0xe0, 0x68, 0x14, 0x14, 0xc1, 0x87, 0x29, 0x83, 0x35, 0xf0, 0x2f, 0x98, 0xcb, 
0xda, 0x2d, 0x9f, 0xbe, 0x95, 0xfa, 0xff, 0x2f, 0x28, 0x1c, 0x08, 0x02, 0x6d, 0x07, 0xff, 0x0f, 
0x00, 0x8c, 0x0b, 0x00, 0x40, 0xe3, 0x00, 0x3c, 0xb0, 0x1b, 0xbb, 0xef, 0x9c, 0xbc, 0xcc, 0x38, 
0xef, 0xf2, 0xff, 0x2e, 0x6c, 0x3d, 0x2b, 0xf8, 0x23, 0xb2, 0xe2, 0xfb, 0xff, 0xa8, 0xad, 0xad, 
0x53, 0x68, 0x0f, 0xe0, 0xbd, 0x00, 0x20, 0x78, 0x57, 0x00, 0xe0, 0x5a, 0x74, 0xc6, 0x3a, 0x24, 
0x94, 0x9b, 0xf3, 0x5c, 0x91, 0x1a, 0x14, 0xdc, 0xaa, 0xfa, 0x7f, 0x43, 0xa1, 0x50, 0xe7, 0x8a, 
0xff, 0xdf, 0x46, 0xcf, 0xe2, 0xf6, 0xbb, 0xec, 0x3f, 0x00, 0x20, 0xfd, 0x69, 0x5f, 0x17, 0x00, 
0x94, 0x39, 0xdd, 0xe0, 0x5f, 0xa1, 0xed, 0xe0, 0x3f, 0x77, 0x9c, 0xe4, 0x34, 0xb6, 0x28, 0x25, 
0xff, 0x9f, 0xf0, 0xf9, 0x5a, 0xd8, 0xfb, 0xff, 0x73, 0x8f, 0x9f, 0xba, 0x95, 0x79, 0x01, 0x00, 
0x20, 0x9a, 0x00, 0x80, 0x56, 0x0d, 0xe0, 0xaf, 0xf3, 0x7b, 0x88, 0x01, 0xae, 0xc3, 0xd7, 0xf1, 
0xfd, 0xff, 0xaa, 0xb4, 0xa4, 0x82, 0xe8, 0xff, 0x7f, 0x86, 0xef, 0xdc, 0x76, 0xe2, 0x03, 0xc8, 
0x3b, 0x00, 0x80, 0x28, 0x23, 0x00, 0x64, 0x89, 0xe7, 0xc2, 0x1c, 0x12, 0x5f, 0x78, 0xaa, 0x7e, 
0x56, 0xe5, 0x4f, 0x57, 0xd5, 0xbb, 0xda, 0xff, 0xbf, 0xb6, 0x3a, 0xd8, 0x5b, 0xec, 0xff, 0x9f, 
0x7e, 0x12, 0xba, 0x85, 0x7f, 0x10, 0x7c, 0x20, 0xa8, 0xd4, 0x1f, 0x00, 0x56, 0x4d, 0x83, 0x6a, 
0xb5, 0x8d, 0x18, 0xfd, 0x87, 0xff, 0x51, 0xeb, 0x3f, 0xc8, 0x79, 0xe0, 0xb4, 0xff, 0x5f, 0x68, 
0xad, 0x16, 0x5c, 0xff, 0xff, 0xcf, 0x38, 0x7e, 0xd7, 0x02, 0xd5, 0x04, 0x00, 0x86, 0x06, 0x00, 
0x7e, 0x7f, 0x2f, 0x86, 0xae, 0x7c, 0x2d, 0xbf, 0xf1, 0x7d, 0x80, 0xaf, 0x42, 0x18, 0xd7, 0xeb, 
0xba, 0xcd, 0xff, 0xe7, 0xb1, 0xa3, 0xa5, 0x12, 0x3f, 0xfa, 0x7f, 0x34, 0xe7, 0x7e, 0x99, 0xe8, 
0x07, 0x90, 0x75, 0x00, 0x20, 0x44, 0x17, 0x00, 0xc4, 0x7b, 0x2f, 0x73, 0xbc, 0x6b, 0x11, 0x6b, 
0x3f, 0x95, 0x01, 0xcf, 0x57, 0x97, 0xc2, 0x4c, 0xff, 0xcf, 0xe2, 0x8c, 0x23, 0x09, 0x1c, 0xff, 
0xff, 0x1f, 0x72, 0x3f, 0x80, 0x06, 0xb4, 0x2f, 0x00, 0x10, 0x2e, 0x6c, 0xa0, 0x89, 0x04, 0x42, 
0xd8, 0xfc, 0xe0, 0xdf, 0x8a, 0xb7, 0x50, 0xde, 0xfb, 0x77, 0xdc, 0xf5, 0xff, 0x37, 0xea, 0xaf, 
0x90, 0x17, 0x67, 0xff, 0xff, 0xb7, 0xfa, 0x0c, 0x95, 0x19, 0x00, 0x40, 0x3d, 0x00, 0x90, 0x4f, 
0x11, 0xfa, 0xe0, 0x01, 0x40, 0x5e, 0x12, 0x00, 0xcf, 0x0d, 0xea, 0x76, 0x98, 0xf5, 0xc9, 0x2a, 
0x9b, 0xff, 0xdf, 0xfe, 0xff, 0x74, 0xb4, 0xc3, 0xaa, 0xe2, 0x01, 0x5a, 0x1c, 0x00, 0x56, 0x84, 
0x28, 0x6a, 0x4a, 0x09, 0xc4, 0x0a, 0x00, 0x88, 0x3f, 0x80, 0x07, 0x66, 0x50, 0xeb, 0xca, 0x5f, 
0x51, 0x7e, 0xfe, 0xff, 0xe4, 0xf4, 0xcf, 0xbc, 0x7c, 0xe2, 0xfb, 0xff, 0x68, 0x88, 0x84, 0xad, 
0xca, 0x7f, 0x10, 0x00, 0xac, 0x6e, 0x21, 0x16, 0x00, 0x8a, 0x9d, 0x08, 0x0f, 0x43, 0x09, 0x7d, 
0xe1, 0x7f, 0x8d, 0x4c, 0x8a, 0x87, 0x20, 0x52, 0x8b, 0xfb, 0xff, 0x3f, 0x2b, 0x94, 0xc9, 0x5b, 
0x66, 0xfd, 0xff, 0xc0, 0x34, 0x43, 0x1c, 0x22, 0x00, 0x10, 0x48, 0x00, 0x40, 0x4b, 0x03, 0x3c, 
0x06, 0x36, 0xb9, 0x46, 0x93, 0x61, 0xbb, 0xaa, 0x22, 0xe4, 0xff, 0xeb, 0x75, 0x47, 0x35, 0x88, 
0xd5, 0xde, 0xff, 0x17, 0x5f, 0x91, 0x26, 0xd2, 0x92, 0xff, 0x00, 0xe6, 0x02, 0x01, 0x61, 0xac, 
0x03, 0x40, 0x13, 0x21, 0x52, 0x7f, 0x09, 0x08, 0xd4, 0xa1, 0xf8, 0x7f, 0x1a, 0x46, 0x49, 0xc9, 
0xde, 0xff, 0xff, 0xf0, 0x83, 0xc4, 0x4c, 0x3b, 0x43, 0xe6, 0x3f, 0x00, 0x40, 0x62, 0x11, 0x00, 
0x88, 0x3a, 0xa4, 0x44, 0xe6, 0x32, 0x1d, 0xae, 0x3c, 0x42, 0x82, 0xc1, 0x7f, 0xf8, 0x02, 0x49, 
0xd5, 0x38, 0x8d, 0x4d, 0xfe, 0xbf, 0xc5, 0x8c, 0xda, 0x77, 0xd6, 0x15, 0xf4, 0xff, 0x00, 0x60, 
0x07, 0x00, 0x80, 0xa8, 0x13, 0xe0, 0x21, 0x50, 0xfb, 0xcd, 0x63, 0x18, 0xe0, 0x00, 0x54, 0xfc, 
0xbf, 0xb7, 0x36, 0x10, 0x3b, 0xb0, 0x6b, 0x49, 0xff, 0x0f, 0x00, 0xec, 0x36, 0x1b, 0xf1, 0xfc, 
0x03, 0xa4, 0x14, 0x00, 0x8c, 0xb2, 0x06, 0x00, 0x69, 0x79, 0xc8, 0x25, 0x03, 0x90, 0x60, 0x12, 
0xf5, 0xff, 0xa5, 0x6f, 0xa2, 0xc3, 0x3a, 0xd4, 0xff, 0x7f, 0xf5, 0x5c, 0x55, 0xfb, 0x6d, 0xad, 
0x7f, 0x50, 0x79, 0x00, 0x38, 0xc2, 0x24, 0x00, 0x90, 0xe8, 0x35, 0xc6, 0x3a, 0x5c, 0x00, 0x00, 
0x40, 0xf8, 0xc7, 0xe4, 0x82, 0x24, 0x36, 0x04, 0x18, 0x00, 0xa0, 0x04, 0xc0, 0x83, 0x8b, 0xff
};
