#include <stdint.h>

#include <stddef.h>

const size_t sub_0001_model_data_size = 1984;

__attribute__((aligned(16))) const uint8_t sub_0001_model_data[1984] = {
0x00, 0x00, 0x00, 0x00, 0x00, 0x00, 0x00, 0x00, 0x00, 0x00, 0x00, 0x00, 0x00, 0x00, 0x00, 0x00, 
0x00, 0x00, 0x00, 0x00, 0x00, 0x00, 0x00, 0x00, 0x00, 0x00, 0x00, 0x00, 0x00, 0x00, 0x00, 0x00, 
0x00, 0x00, 0x00, 0x00, 0x00, 0x00, 0x00, 0x00, 0x00, 0x00, 0x00, 0x00, 0x00, 0x00, 0x00, 0x00, 
0x00, 0x00, 0x00, 0x00, 0x00, 0x00, 0x00, 0x00, 0x00, 0x00, 0x00, 0x00, 0x00, 0x00, 0x00, 0x00, 
0x00, 0x00, 0x00, 0x00, 0x00, 0x00, 0x00, 0x00, 0x00, 0x00, 0x00, 0x00, 0x00, 0x00, 0x00, 0x00, 
0x00, 0x00, 0x00, 0x00, 0x00, 0x00, 0x00, 0x00, 0x00, 0x00, 0x00, 0x00, 0x00, 0x00, 0x00, 0x00, 
0x00, 0x00, 0x00, 0x00, 0x00, 0x00, 0x00, 0x00, 0x00, 0x00, 0x00, 0x00, 0x00, 0x00, 0x00, 0x00, 
0x00, 0x00, 0x00, 0x00, 0x00, 0x00, 0x00, 0x00, 0x00, 0x00, 0x00, 0x00, 0x00, 0x00, 0x00, 0x00, 
0x00, 0x00, 0x00, 0x00, 0x00, 0x00, 0x00, 0x00, 0x00, 0x00, 0x00, 0x00, 0x00, 0x00, 0x00, 0x00, 
0x00, 0x00, 0x00, 0x00, 0x00, 0x00, 0x00, 0x00, 0x00, 0x00, 0x00, 0x00, 0x00, 0x00, 0x00, 0x00, 
0x00, 0x00, 0x00, 0x00, 0x00, 0x00, 0x00, 0x00, 0x00, 0x00, 0x00, 0x00, 0x00, 0x00, 0x00, 0x00, 
0x00, 0x00, 0x00, 0x00, 0x00, 0x00, 0x00, 0x00, 0x00, 0x00, 0x00, 0x00, 0x00, 0x00, 0x00, 0x00, 
0x00, 0x00, 0x00, 0x00, 0x00, 0x00, 0x00, 0x00, 0x00, 0x00, 0x00, 0x00, 0x00, 0x00, 0x00, 0x00, 
0x00, 0x00, 0x00, 0x00, 0x00, 0x00, 0x00, 0x00, 0x00, 0x00, 0x00, 0x00, 0x00, 0x00, 0x00, 0x00, 
0x00, 0x00, 0x00, 0x00, 0x00, 0x00, 0x00, 0x00, 0x00, 0x00, 0x00, 0x00, 0x00, 0x00, 0x00, 0x00, 
0xee, 0x8f, 0xff, 0xff, 0xff, 0x98, 0x61, 0x72, 0x73, 0x28, 0xa1, 0xc5, 0xff, 0xff, 0xff, 0x6c, 
0xa4, 0x69, 0x63, 0x27, 0x6d, 0x5a, 0x00, 0x00, 0x00, 0x09, 0x28, 0x2b, 0x56, 0x27, 0x76, 0xb5, 
0xff, 0xff, 0xff, 0x1a, 0xf4, 0xe1, 0x63, 0x27, 0x48, 0x8a, 0xff, 0xff, 0xff, 0x99, 0xfe, 0x2d, 
0x75, 0x28, 0xf2, 0x1c, 0x00, 0x00, 0x00, 0x87, 0x39, 0x84, 0x5d, 0x27, 0x6b, 0x00, 0x00, 0x00, 
0x00, 0x60, 0xc9, 0x3b, 0x6e, 0x26, 0xd9, 0x6f, 0x00, 0x00, 0x00, 0x26, 0xf0, 0xdb, 0x69, 0x28, 
0x32, 0x02, 0x54, 0xf3, 0xed, 0xff, 0x6f, 0x8e, 0xfa, 0x69, 0x05, 0x73, 0x6f, 0x5f, 0x0f, 0xbf, 
0x9e, 0xde, 0x9d, 0xcd, 0xbc, 0xac, 0x4c, 0x2c, 0x7c, 0xcb, 0x7a, 0x2a, 0xda, 0xb9, 0x89, 0x39, 
0xd9, 0xb8, 0xf8, 0xd7, 0x57, 0x03, 0xaa, 0xfa, 0x61, 0xa0, 0xaa, 0xcf, 0xb4, 0x1e, 0xf3, 0x55, 
0xe6, 0xff, 0x38, 0x56, 0x55, 0xd9, 0x8f, 0x2b, 0x46, 0x58, 0xa4, 0xff, 0xbf, 0xaa, 0xbe, 0x66, 
0x4a, 0x05, 0xbc, 0x82, 0xff, 0x37, 0x28, 0x55, 0xed, 0xff, 0xc7, 0x1b, 0x55, 0xad, 0x5b, 0x04, 
0x96, 0x3d, 0x80, 0xf7, 0xff, 0x67, 0x94, 0xaa, 0xae, 0xa9, 0xa5, 0x04, 0x2e, 0xee, 0xff, 0x57, 
0x55, 0x48, 0x90, 0x17, 0x48, 0x7b, 0xf0, 0xff, 0x46, 0xac, 0xaa, 0xf7, 0xff, 0x3d, 0x5d, 0x55, 
0x4b, 0x87, 0x2c, 0x10, 0xe1, 0x04, 0xff, 0x5f, 0x55, 0x01, 0x2b, 0x21, 0x2e, 0xb0, 0xff, 0xbf, 
0x00, 0x54, 0xa5, 0xff, 0xa7, 0x02, 0xfc, 0xff, 0x00, 0x00, 0x05, 0x00, 0xfe, 0xff, 0xe9, 0x3f, 
0xc0, 0xff, 0xff, 0xff, 0xff, 0xff, 0xff, 0xff, 0xff, 0xff, 0xff, 0xff, 0xff, 0xff, 0xff, 0xff, 
0xb5, 0x2b, 0x00, 0x00, 0x00, 0x59, 0xeb, 0x45, 0x4f, 0x27, 0x64, 0xee, 0xff, 0xff, 0xff, 0x6b, 
0x81, 0xa1, 0x5a, 0x27, 0x51, 0x23, 0x00, 0x00, 0x00, 0x18, 0x97, 0x2e, 0x74, 0x27, 0x34, 0x02, 
0x00, 0x00, 0x00, 0x57, 0x30, 0x4b, 0x4b, 0x26, 0x9e, 0xfa, 0xff, 0xff, 0xff, 0x8a, 0xc4, 0x1a, 
0x68, 0x26, 0xbd, 0xfe, 0xff, 0xff, 0xff, 0x1a, 0x8b, 0x9c, 0x79, 0x27, 0x4c, 0xf3, 0xff, 0xff, 
0xff, 0x55, 0x73, 0xac, 0x79, 0x28, 0x6f, 0x0f, 0x00, 0x00, 0x00, 0x0d, 0x2a, 0x6a, 0x7f, 0x28, 
0x8a, 0xf6, 0xff, 0xff, 0xff, 0xba, 0x39, 0xae, 0x5a, 0x26, 0x87, 0xf4, 0xff, 0xff, 0xff, 0x32, 
0x39, 0x93, 0x61, 0x26, 0xa7, 0xf2, 0xff, 0xff, 0xff, 0x29, 0x24, 0x28, 0x42, 0x26, 0x2d, 0xec, 
0xff, 0xff, 0xff, 0x7d, 0x03, 0xfe, 0x50, 0x27, 0xef, 0xf8, 0xff, 0xff, 0xff, 0xf2, 0x32, 0x1e, 
0x47, 0x26, 0x5d, 0x08, 0x00, 0x00, 0x00, 0x60, 0x0a, 0xea, 0x73, 0x28, 0x33, 0xed, 0xff, 0xff, 
0xff, 0x3d, 0x9d, 0x2e, 0x79, 0x27, 0x37, 0xf4, 0xff, 0xff, 0xff, 0x7e, 0x6e, 0xea, 0x4e, 0x26, 
0xe8, 0x11, 0x5c, 0x01, 0x0c, 0x00, 0x7a, 0x86, 0x35, 0x16, 0x15, 0x4d, 0x2e, 0xa4, 0x00, 0x20, 
0x37, 0xd2, 0xb8, 0x45, 0x79, 0xa6, 0x3b, 0x06, 0x00, 0xb9, 0xcb, 0x6f, 0xef, 0x3a, 0xc6, 0x0c, 
0x3f, 0x1e, 0x34, 0x17, 0xa9, 0x01, 0x51, 0x8f, 0x0e, 0x00, 0x90, 0xf7, 0x18, 0x74, 0x18, 0x88, 
0xf7, 0x81, 0x0b, 0x80, 0xca, 0x20, 0x50, 0x84, 0x6a, 0xc2, 0x1f, 0x9d, 0xd4, 0xd1, 0xac, 0x44, 
0x33, 0xe8, 0x8f, 0x75, 0x00, 0xc0, 0xb1, 0xdd, 0x1a, 0x60, 0xcd, 0x9f, 0x77, 0x05, 0x00, 0xc7, 
0xc9, 0x30, 0x75, 0xb0, 0x43, 0xbe, 0x4e, 0x63, 0x59, 0x82, 0xca, 0xac, 0x90, 0xa5, 0xfd, 0x00, 
0x10, 0x0e, 0x25, 0xa6, 0xeb, 0xbb, 0x75, 0xbc, 0x02, 0x00, 0xaa, 0x04, 0xa5, 0x60, 0xb6, 0x24, 
0x58, 0x0b, 0x5a, 0x81, 0x33, 0x48, 0x51, 0xa5, 0x41, 0x8f, 0x00, 0x00, 0x13, 0x6a, 0x7b, 0x66, 
0xb2, 0x13, 0x15, 0x0e, 0x00, 0x4a, 0x01, 0xd6, 0x76, 0x0a, 0xfd, 0x94, 0x38, 0x98, 0x51, 0x18, 
0xa3, 0x35, 0x8a, 0xdc, 0x76, 0x00, 0x10, 0x59, 0xd0, 0x5f, 0xc2, 0xe2, 0x76, 0x4e, 0x04, 0x00, 
0xe4, 0x97, 0x76, 0x1b, 0x44, 0xa3, 0xa0, 0xcf, 0xe3, 0x33, 0xb9, 0x39, 0x31, 0x4b, 0xdb, 0x39, 
0x00, 0x20, 0x96, 0x59, 0xd2, 0x55, 0xa5, 0x4a, 0x73, 0x0a, 0x00, 0xc6, 0x9c, 0x96, 0x57, 0x41, 
0x19, 0x2c, 0xbd, 0x42, 0x5c, 0x1d, 0x8f, 0x30, 0x09, 0x45, 0xbe, 0x00, 0xe0, 0x32, 0xad, 0x10, 
0xf3, 0xbc, 0xf9, 0x6c, 0x07, 0x00, 0x0c, 0xaa, 0xb5, 0x0d, 0x43, 0xdb, 0x16, 0xbd, 0xd2, 0xaf, 
0xa9, 0xb7, 0x9d, 0xcf, 0x48, 0x69, 0x00, 0xe0, 0x24, 0x46, 0x55, 0x83, 0x52, 0xf7, 0xc2, 0x08, 
0x00, 0x4e, 0xa0, 0x5c, 0x1b, 0xd5, 0x33, 0x6c, 0x39, 0x85, 0x2d, 0xae, 0x0a, 0x5f, 0x28, 0x38, 
0x45, 0x00, 0x00, 0xe1, 0x86, 0x71, 0xe4, 0x61, 0x17, 0x62, 0x0a, 0x00, 0x39, 0x77, 0x8b, 0x08, 
0x3e, 0x59, 0x26, 0x01, 0x4a, 0x18, 0xa6, 0x95, 0x91, 0x3e, 0x2a, 0xd8, 0x00, 0xf0, 0xa8, 0xfd, 
0x44, 0xb6, 0xdb, 0xc8, 0x71, 0x08, 0x00, 0x5f, 0xd7, 0x69, 0xc1, 0xce, 0xca, 0x63, 0xfc, 0x5b, 
0xb0, 0x11, 0x18, 0x5f, 0x0c, 0x00, 0x4a, 0x00, 0xd0, 0xd7, 0x24, 0x54, 0xc5, 0x70, 0x9c, 0x36, 
0x08, 0x00, 0x46, 0x6c, 0x18, 0x06, 0x2a, 0x3f, 0x8b, 0x58, 0xca, 0x2e, 0x32, 0xfc, 0x1f, 0xb4, 
0x1c, 0xa8, 0x00, 0xe0, 0x1d, 0xec, 0xd6, 0x89, 0xc1, 0x94, 0x5c, 0x02, 0x00, 0x30, 0x99, 0xa0, 
0x64, 0xa7, 0xaa, 0xe6, 0xc5, 0x6e, 0x7c, 0xd8, 0xf7, 0x5d, 0x46, 0xa8, 0x4a, 0x00, 0x51, 0xd5, 
0xe8, 0xd1, 0x59, 0x91, 0x3a, 0x21, 0x05, 0x00, 0x4d, 0xb9, 0x2f, 0x4f, 0xe4, 0xa7, 0xa6, 0x19, 
0xb1, 0x86, 0xd9, 0x60, 0xdc, 0x89, 0xd0, 0xc0, 0x00, 0xe0, 0xd5, 0x17, 0xe1, 0xc5, 0xff, 0xca, 
0x5a, 0x0d, 0x00, 0x81, 0x13, 0x6a, 0x67, 0x20, 0x1f, 0xbb, 0x32, 0x7f, 0x81, 0xa9, 0x0c, 0xe8, 
0x60, 0xa0, 0x5a, 0x00, 0x60, 0x6d, 0x6b, 0x32, 0xbe, 0xa6, 0x43, 0x92, 0x0f, 0x00, 0x9f, 0x1d, 
0x5e, 0xaf, 0x35, 0x3b, 0x38, 0xf3, 0xdf, 0xcb, 0x59, 0x4b, 0x21, 0xd5, 0x18, 0x20, 0x00, 0x80, 
0xe2, 0xc0, 0x52, 0x2c, 0xa4, 0xca, 0x16, 0x0a, 0x00, 0x03, 0xbb, 0x5c, 0xbd, 0xb4, 0x0c, 0x39, 
0x56, 0x85, 0x7f, 0x4f, 0x66, 0x1b, 0x06, 0xea, 0x31, 0x00, 0x50, 0x5d, 0xcb, 0x2c, 0x39, 0x83, 
0x75, 0xb1, 0x08, 0x00, 0xe4, 0xab, 0x68, 0x08, 0xfc, 0x8f, 0x0f, 0x83, 0x6b, 0x3d, 0x74, 0x5d, 
0x65, 0x66, 0x83, 0x69, 0x00, 0x10, 0x7a, 0x91, 0xfa, 0x34, 0xd1, 0xd9, 0xd4, 0x09, 0x00, 0xad, 
0x79, 0xd3, 0xd7, 0x32, 0xca, 0xbf, 0x9e, 0x5c, 0x25, 0x4a, 0x57, 0x33, 0xba, 0x2a, 0x4b, 0x00, 
0x70, 0xa7, 0x58, 0xbf, 0xd3, 0xd2, 0x64, 0x61, 0x08, 0x00, 0xd1, 0x46, 0xab, 0x72, 0x5d, 0xb4, 
0xb7, 0x92, 0x09, 0xb3, 0x4f, 0xe0, 0xbc, 0x55, 0xf1, 0x15, 0x00, 0x60, 0xdc, 0x73, 0x43, 0xc7, 
0x3a, 0x47, 0xd9, 0x03, 0x00, 0x1e, 0x5d, 0xea, 0xc7, 0x6e, 0x63, 0xd7, 0x43, 0xd4, 0xdf, 0x89, 
0x2a, 0x3d, 0x35, 0x92, 0x40, 0x00, 0x20, 0x9f, 0xa9, 0xbc, 0x2f, 0x59, 0x8d, 0xd7, 0x00, 0x00, 
0x4a, 0x4d, 0xc7, 0x3c, 0x6e, 0x70, 0x09, 0xb7, 0x3d, 0x7b, 0x7a, 0x7d, 0x21, 0x45, 0x47, 0xd6, 
0x00, 0xf0, 0xb9, 0x77, 0x69, 0xd7, 0x48, 0x87, 0x1c, 0x03, 0x00, 0x38, 0x3f, 0x35, 0x58, 0x75, 
0x66, 0xab, 0x46, 0xbe, 0x4a, 0xde, 0xf2, 0x85, 0xa5, 0xb6, 0xe0, 0x00, 0x00, 0x80, 0xc6, 0xf9, 
0xfa, 0x47, 0x22, 0x31, 0xfe, 0xff, 0x46, 0x67, 0x7c, 0xe9, 0xe8, 0xb0, 0xff, 0xff, 0xff, 0xff, 
0xff, 0xff, 0xff, 0xff, 0xff, 0xff, 0xff, 0xff, 0xff, 0xff, 0xff, 0xff, 0xff, 0xff, 0xff, 0xff, 
0xff, 0xff, 0x0f, 0x00, 0x03, 0x00, 0x1c, 0x80, 0x50, 0xa0, 0x47, 0x70, 0x00, 0x20, 0xf8, 0xf1, 
0x08, 0xf6, 0x15, 0xdd, 0xf8, 0x18, 0x00, 0x24, 0x90, 0xbc, 0x3b, 0x49, 0x28, 0x7b, 0x73, 0x00, 
0x40, 0xad, 0x32, 0x40, 0x4b, 0x58, 0x1e, 0x86, 0x54, 0x9d, 0x17, 0xc3, 0xda, 0x8a, 0x3c, 0xe6, 
0x16, 0x00, 0xa2, 0xf0, 0x36, 0xd2, 0xff, 0x7e, 0x0a, 0xbf, 0x01, 0xe0, 0x0e, 0x05, 0x29, 0x43, 
0xf1, 0xad, 0xb4, 0x99, 0x37, 0x0d, 0xcf, 0xd0, 0x3a, 0x0c, 0xe4, 0x14, 0x00, 0x44, 0xbe, 0xb5, 
0xaf, 0xb8, 0x4c, 0x7d, 0x3d, 0x00, 0x60, 0xa4, 0x61, 0x5c, 0xd5, 0x4b, 0xbc, 0xc8, 0x11, 0x88, 
0x66, 0xcb, 0x9c, 0x06, 0xea, 0x6f, 0x16, 0x00, 0xd0, 0x26, 0x93, 0xb7, 0x81, 0xcc, 0x27, 0x54, 
0x00, 0xc0, 0x57, 0xcd, 0x88, 0x70, 0x6d, 0x68, 0x52, 0xce, 0xb8, 0xa7, 0x69, 0x82, 0x99, 0x2c, 
0x30, 0x0d, 0x00, 0xe8, 0x0c, 0x5c, 0xc2, 0x06, 0xad, 0x68, 0xa0, 0x00, 0xe0, 0xed, 0xba, 0x0b, 
0xab, 0x35, 0x56, 0x9e, 0x1c, 0xfc, 0xdb, 0xfa, 0x43, 0x34, 0x83, 0xa2, 0x1f, 0x00, 0x94, 0x70, 
0xa7, 0x26, 0x75, 0x94, 0x8c, 0x18, 0x01, 0xc0, 0xf9, 0x6b, 0x05, 0x2c, 0x60, 0x2b, 0x83, 0x68, 
0xe6, 0xa9, 0xab, 0x70, 0xc9, 0xe9, 0x1b, 0x17, 0x00, 0x3a, 0x52, 0xdc, 0xf8, 0x49, 0x36, 0x53, 
0x06, 0x01, 0x40, 0x82, 0x45, 0x75, 0xb3, 0xe6, 0x0b, 0xa5, 0x37, 0x2b, 0xb4, 0xac, 0xc5, 0x75, 
0x8b, 0x18, 0x17, 0x00, 0xf8, 0xbb, 0x5a, 0xc3, 0x6b, 0x81, 0x61, 0xdb, 0x00, 0x00, 0xd3, 0x63, 
0x2f, 0x24, 0x77, 0xb1, 0x93, 0x8e, 0x5c, 0x8a, 0x09, 0xb9, 0xf1, 0x15, 0xd4, 0x18, 0x00, 0x32, 
0x0b, 0x82, 0xb0, 0x7c, 0xf8, 0x07, 0x01, 0x01, 0x80, 0xd1, 0xa0, 0xf4, 0xb9, 0x39, 0x76, 0xe3, 
0x21, 0x75, 0xaa, 0xb8, 0x48, 0x3d, 0xf1, 0xe6, 0x0b, 0x00, 0x56, 0x53, 0xa8, 0x59, 0x2e, 0x5e, 
0x50, 0x4e, 0x01, 0x20, 0xcd, 0x5b, 0x79, 0x5a, 0x73, 0x41, 0x9a, 0x60, 0xc8, 0xd6, 0xc2, 0x9b, 
0x82, 0x29, 0xba, 0x00, 0x00, 0x48, 0xd7, 0x72, 0xb5, 0xd9, 0xd8, 0xe8, 0x74, 0x00, 0xc0, 0x6e, 
0x8d, 0xda, 0x0c, 0xa9, 0x67, 0xef, 0x72, 0x0d, 0x3a, 0x70, 0xb0, 0x25, 0xc8, 0x5e, 0x1a, 0x00, 
0x48, 0xe5, 0x1c, 0x6f, 0xac, 0xac, 0xb9, 0xf9, 0x00, 0x00, 0xe8, 0xc2, 0xe4, 0xe1, 0xa4, 0x28, 
0x83, 0x18, 0xc2, 0x86, 0x5f, 0x8e, 0x60, 0xc5, 0x4d, 0x0e, 0x00, 0xfa, 0x45, 0x66, 0x92, 0x55, 
0xb7, 0x09, 0x47, 0x01, 0x80, 0xb3, 0xa5, 0x32, 0x67, 0x25, 0x53, 0x3a, 0xd8, 0xa8, 0xe4, 0x38, 
0x4d, 0x13, 0x8e, 0xe3, 0x00, 0x00, 0x46, 0xc9, 0x14, 0xf6, 0x06, 0x4a, 0x42, 0x17, 0x01, 0x40, 
0xf3, 0xf0, 0xb9, 0x0a, 0x8d, 0xb9, 0xa3, 0xaf, 0xa4, 0x34, 0xaf, 0x66, 0xed, 0x8d, 0xc7, 0x0f, 
0x00, 0x40, 0x66, 0x18, 0xe8, 0x4a, 0xd6, 0x36, 0xf1, 0x00, 0x60, 0xd6, 0x8b, 0x2b, 0xa5, 0x62, 
0x67, 0x34, 0xa5, 0x81, 0x6a, 0x52, 0xd1, 0x73, 0x29, 0xcf, 0x15, 0x00, 0x18, 0x9c, 0x8c, 0xe3, 
0x5d, 0xec, 0x11, 0x92, 0x00, 0xc0, 0xf4, 0xe6, 0x2c, 0x75, 0x31, 0x0b, 0x8a, 0xcb, 0x75, 0xc3, 
0x3a, 0x8e, 0xf0, 0xa9, 0x87, 0x10, 0x00, 0x3a, 0x0d, 0x18, 0x33, 0x94, 0xf8, 0xd4, 0xba, 0x00, 
0xc0, 0xd5, 0x6f, 0x80, 0x06, 0xf3, 0xcb, 0x02, 0xa7, 0x43, 0xb9, 0xee, 0xc1, 0xb0, 0x10, 0x0a, 
0x11, 0x00, 0x62, 0xbc, 0x72, 0x22, 0x6a, 0x7b, 0x9c, 0xe4, 0x00, 0x40, 0xbb, 0xa8, 0x4e, 0xda, 
0x33, 0xb1, 0x1e, 0x0d, 0x28, 0x29, 0xde, 0x3c, 0xd7, 0x8f, 0xc8, 0x00, 0x00, 0x32, 0x18, 0xc2, 
0xa8, 0xd8, 0x41, 0x59, 0x4e, 0x00, 0x20, 0xca, 0x1b, 0x21, 0xdc, 0x8f, 0xd0, 0xd8, 0x39, 0x93, 
0x4d, 0xaa, 0xe3, 0xed, 0x75, 0x58, 0x06, 0x00, 0xac, 0xea, 0x88, 0x32, 0x38, 0xf9, 0x83, 0x34, 
0x01, 0xa0, 0x02, 0xf3, 0xb4, 0xe3, 0x87, 0xec, 0x2f, 0x7b, 0x66, 0x8b, 0x4f, 0x0d, 0x2a, 0x83, 
0xee, 0x10, 0x00, 0xdc, 0xaa, 0xd0, 0xcd, 0x31, 0xd2, 0xb4, 0x24, 0x01, 0xe0, 0xc8, 0xd9, 0xad, 
0xce, 0x44, 0x8c, 0x31, 0x62, 0xc5, 0x6c, 0xe2, 0x01, 0xf8, 0xcf, 0x91, 0x0b, 0x00, 0xa6, 0x66, 
0xc1, 0x2c, 0xc6, 0x59, 0x52, 0x29, 0x01, 0xc0, 0x32, 0xb2, 0x37, 0xb1, 0xda, 0xd4, 0xd2, 0x0b, 
0x9c, 0xb2, 0x0c, 0xd2, 0x90, 0x7e, 0x0a, 0x14, 0x00, 0x54, 0xb4, 0xc1, 0x5b, 0x1f, 0x44, 0x1a, 
0x7b, 0x01, 0x80, 0x99, 0x9a, 0xb8, 0x26, 0x0a, 0x89, 0x10, 0xe5, 0x10, 0x09, 0x60, 0x55, 0xb1, 
0x94, 0xb0, 0x16, 0x00, 0x78, 0x2c, 0xf5, 0x3f, 0x96, 0x22, 0x39, 0x09, 0x1c, 0x7a, 0x16, 0x90, 
0x79, 0xf8, 0x07, 0x00, 0x38, 0xff, 0xff, 0x6f, 0xff, 0x00, 0xf8, 0xff, 0xff, 0xff, 0xff, 0xff
};
