#include <stdint.h>

#include <stddef.h>

const size_t sub_0003_model_data_size = 10112;

__attribute__((aligned(16))) const uint8_t sub_0003_model_data[10112] = {
0x00, 0x00, 0x00, 0x00, 0x00, 0x00, 0x00, 0x00, 0x00, 0x00, 0x00, 0x00, 0x00, 0x00, 0x00, 0x00, 
0x00, 0x00, 0x00, 0x00, 0x00, 0x00, 0x00, 0x00, 0x00, 0x00, 0x00, 0x00, 0x00, 0x00, 0x00, 0x00, 
0x00, 0x00, 0x00, 0x00, 0x00, 0x00, 0x00, 0x00, 0x00, 0x00, 0x00, 0x00, 0x00, 0x00, 0x00, 0x00, 
0x00, 0x00, 0x00, 0x00, 0x00, 0x00, 0x00, 0x00, 0x00, 0x00, 0x00, 0x00, 0x00, 0x00, 0x00, 0x00, 
0xea, 0xfe, 0xff, 0xff, 0xff, 0x52, 0xe6, 0xaa, 0x6a, 0x2a, 0x06, 0x00, 0x00, 0x00, 0x00, 0x52, 
0xe6, 0xaa, 0x6a, 0x2a, 0x2b, 0xff, 0xff, 0xff, 0xff, 0x52, 0xe6, 0xaa, 0x6a, 0x2a, 0xac, 0xfe, 
0xff, 0xff, 0xff, 0x52, 0xe6, 0xaa, 0x6a, 0x2a, 0x00, 0x00, 0x00, 0x00, 0x00, 0x00, 0x00, 0x00, 
0x30, 0x1b, 0x55, 0x01, 0xac, 0xf2, 0x00, 0x00, 0xf8, 0x79, 0x80, 0x00, 0xa1, 0x38, 0xfb, 0x2c, 
0xff, 0x1f, 0x1a, 0xa5, 0x83, 0x1b, 0xe0, 0x91, 0x78, 0x2a, 0xf9, 0xa1, 0xab, 0x21, 0x0c, 0xe1, 
0xfd, 0x7f, 0xb4, 0x77, 0x29, 0x13, 0x5f, 0x20, 0xf4, 0xfc, 0xbf, 0xcf, 0x35, 0x0e, 0xce, 0xde, 
0xa0, 0x0f, 0x40, 0x20, 0x00, 0x80, 0xa9, 0x10, 0x00, 0xbd, 0x95, 0xe8, 0xd9, 0x21, 0x02, 0xd9, 
0x68, 0x48, 0xff, 0x7f, 0x88, 0x83, 0x39, 0x50, 0xa7, 0xd0, 0xe8, 0xff, 0x63, 0x71, 0x6f, 0xeb, 
0x12, 0xb7, 0x0f, 0xff, 0x01, 0x00, 0x90, 0xc8, 0x50, 0x20, 0xb0, 0x04, 0x38, 0x0d, 0xda, 0x89, 
0xd1, 0x17, 0xe1, 0x1f, 0x19, 0x3b, 0x42, 0x58, 0xa1, 0x23, 0xe4, 0xff, 0xf7, 0xff, 0x13, 0x73, 
0x37, 0xfa, 0x1b, 0x28, 0x03, 0x00, 0xbb, 0x20, 0x20, 0x31, 0x0d, 0x01, 0x3e, 0xb4, 0x1c, 0x3e, 
0x46, 0xf4, 0x00, 0x98, 0x75, 0xff, 0x8f, 0x50, 0xf2, 0xdf, 0x83, 0xd2, 0x81, 0x49, 0xfc, 0xff, 
0x73, 0xb4, 0x40, 0xc5, 0x47, 0x3d, 0xe1, 0x01, 0x30, 0x40, 0x08, 0x01, 0x20, 0x8a, 0x39, 0x63, 
0x06, 0x8e, 0x83, 0x4c, 0x52, 0x51, 0xe7, 0xff, 0xc3, 0xce, 0x13, 0xfc, 0x9f, 0xce, 0xff, 0xff, 
0x43, 0x44, 0x03, 0xc0, 0xa5, 0x56, 0x02, 0x90, 0xc0, 0x56, 0x31, 0x1d, 0x20, 0x29, 0xe8, 0x36, 
0xc9, 0xb1, 0xd8, 0xaa, 0x11, 0xc1, 0x7f, 0x59, 0x52, 0xc6, 0x4f, 0xd5, 0x9a, 0xac, 0xff, 0x07, 
0xfe, 0x7f, 0xbc, 0x68, 0x81, 0x55, 0x27, 0xa1, 0xc2, 0x00, 0x00, 0x5c, 0x00, 0x20, 0x56, 0x0d, 
0xe0, 0x1d, 0x8b, 0x49, 0x68, 0x80, 0x25, 0x4a, 0x39, 0xa2, 0xfa, 0x7f, 0xf8, 0x6d, 0x6d, 0x1e, 
0xa7, 0x45, 0xff, 0xcf, 0xfc, 0xdf, 0x0d, 0x3c, 0xdf, 0x28, 0xa9, 0x0f, 0x00, 0x00, 0x01, 0x7a, 
0x93, 0x06, 0x00, 0x06, 0xb6, 0x79, 0xf5, 0xd7, 0x54, 0xe8, 0xe1, 0xff, 0x27, 0xf8, 0x49, 0x32, 
0x87, 0xb8, 0x27, 0xfc, 0x7f, 0x4f, 0x49, 0xab, 0x28, 0xe3, 0xef, 0xff, 0x00, 0x00, 0x94, 0x19, 
0x00, 0xc0, 0xc1, 0x0a, 0x2c, 0xb7, 0x45, 0xb1, 0x67, 0xd7, 0x10, 0xa8, 0x03, 0xff, 0xd1, 0xc0, 
0x43, 0xcd, 0x33, 0xfc, 0xd2, 0xf2, 0xff, 0x8d, 0xcb, 0x43, 0x4a, 0x46, 0x8d, 0xfd, 0x3f, 0x00, 
0x90, 0x0b, 0x00, 0x90, 0x72, 0x03, 0xf8, 0x01, 0x81, 0x8a, 0xe9, 0x4a, 0x3c, 0xb0, 0x25, 0x40, 
0xff, 0x7f, 0x79, 0x01, 0x2d, 0x84, 0x2e, 0x98, 0xff, 0x3f, 0x77, 0x6a, 0x69, 0x6f, 0x58, 0xaf, 
0x0f, 0x40, 0x55, 0x00, 0xe0, 0x35, 0x8d, 0x00, 0x80, 0x4f, 0xea, 0x29, 0xbb, 0x35, 0x02, 0xf8, 
0x7f, 0xe1, 0x5d, 0x6d, 0x3b, 0x24, 0xb5, 0x31, 0xfa, 0xff, 0x2f, 0xa9, 0x2e, 0xfd, 0x32, 0x83, 
0xce, 0xf0, 0x0f, 0x00, 0xd0, 0xaf, 0x00, 0x00, 0x60, 0xfa, 0x40, 0x10, 0x7a, 0x4b, 0x54, 0x8f, 
0xe2, 0x05, 0x84, 0x7f, 0xbe, 0x85, 0xe2, 0x16, 0x2a, 0xef, 0xb0, 0x92, 0xfe, 0x7f, 0xfd, 0xff, 
0xe2, 0x90, 0x8a, 0xd3, 0x06, 0x04, 0x00, 0xae, 0x03, 0x00, 0x0d, 0x91, 0xea, 0x1b, 0x46, 0xd0, 
0xa1, 0x99, 0x43, 0x26, 0x00, 0x8f, 0x0f, 0xb5, 0x35, 0x83, 0x0c, 0xeb, 0xff, 0xed, 0x52, 0x5f, 
0xb0, 0x70, 0x52, 0xef, 0xff, 0xff, 0x00, 0x53, 0x0b, 0x40, 0x8c, 0x24, 0x00, 0x80, 0x9e, 0x4a, 
0xcd, 0x7d, 0x1e, 0xe5, 0xa6, 0x66, 0x0b, 0xd9, 0x0b, 0x1c, 0xb3, 0x6a, 0x09, 0xff, 0xbf, 0x2c, 
0x25, 0x5c, 0x15, 0x02, 0xfe, 0xff, 0x1f, 0x34, 0x1d, 0x00, 0x9a, 0xb4, 0x01, 0x10, 0x00, 0xe4, 
0x30, 0xfe, 0x3a, 0x7f, 0x85, 0xe1, 0xdf, 0x45, 0xd6, 0x37, 0x93, 0xb1, 0x4a, 0xb7, 0x36, 0x4f, 
0xf8, 0x7f, 0xc0, 0xa4, 0x37, 0x59, 0x73, 0xf5, 0xff, 0x41, 0xbf, 0xf9, 0xa3, 0x19, 0xdf, 0xc9, 
0x02, 0x00, 0x55, 0x02, 0x00, 0x48, 0x49, 0x00, 0xfe, 0xc0, 0xa8, 0x3e, 0xb6, 0xdb, 0xbd, 0xb2, 
0xb1, 0xfb, 0xff, 0x65, 0xeb, 0xe4, 0x04, 0xe2, 0x78, 0xf0, 0xff, 0xe3, 0x93, 0xf7, 0xcb, 0x8c, 
0x0f, 0x80, 0x58, 0x00, 0xc0, 0x6d, 0x06, 0x10, 0x85, 0xfe, 0x6d, 0xde, 0x21, 0xce, 0x39, 0xd2, 
0xfa, 0xff, 0xb1, 0x11, 0x2a, 0x29, 0xca, 0x15, 0xf2, 0xfd, 0x3f, 0x72, 0x52, 0xbc, 0xdb, 0xc7, 
0xff, 0x87, 0xa1, 0x03, 0x00, 0xe1, 0x4a, 0x00, 0x40, 0x3e, 0xf9, 0x80, 0x38, 0xbb, 0x1d, 0xe7, 
0x17, 0x10, 0xfc, 0xc3, 0x0f, 0x24, 0x11, 0x4e, 0xf2, 0xfd, 0x3f, 0x3e, 0x71, 0xb2, 0xff, 0x02, 
0x08, 0x99, 0xfe, 0x3f, 0x00, 0x4c, 0x2a, 0x00, 0x00, 0x6f, 0x7c, 0x42, 0xb6, 0x5e, 0x15, 0xe2, 
0x8c, 0x1f, 0x00, 0xc0, 0xe7, 0xab, 0x19, 0x7d, 0x08, 0xcd, 0xec, 0x48, 0x20, 0xfc, 0x3f, 0xff, 
0x4f, 0x4c, 0x7e, 0xa4, 0x2b, 0x58, 0x9c, 0x18, 0x0f, 0x10, 0x15, 0x00, 0x00, 0x28, 0x04, 0x00, 
0x20, 0x00, 0x4f, 0x3b, 0xbf, 0xcc, 0xb4, 0x20, 0x26, 0xfd, 0x7f, 0x6a, 0x4d, 0x0d, 0x23, 0x98, 
0x60, 0x99, 0x55, 0xff, 0x3f, 0x79, 0xa3, 0x7a, 0x09, 0x00, 0xc4, 0x3f, 0x00, 0x00, 0x02, 0x01, 
0x00, 0x8a, 0x0f, 0xff, 0x80, 0x91, 0xe7, 0x7f, 0xf6, 0xae, 0xcf, 0x1c, 0xfb, 0x7f, 0x99, 0x99, 
0xf9, 0x2b, 0x07, 0x0a, 0x36, 0xfa, 0x7f, 0x02, 0xb8, 0x14, 0x00, 0x00, 0x64, 0x8c, 0xbf, 0x06, 
0x42, 0xf9, 0x0b, 0x7b, 0x61, 0x41, 0x80, 0x17, 0x45, 0x2d, 0x81, 0x36, 0x02, 0x8f, 0xf2, 0xc8, 
0xff, 0x83, 0xff, 0x57, 0x5d, 0x69, 0x9b, 0x30, 0x5e, 0x7e, 0xf6, 0x07, 0x28, 0x23, 0x00, 0x10, 
0x14, 0x09, 0x10, 0xb1, 0x5d, 0x88, 0x80, 0x05, 0x60, 0x4e, 0x6b, 0xd2, 0xff, 0x07, 0x42, 0xae, 
0x4f, 0xf2, 0xde, 0xd6, 0xfe, 0xff, 0xdf, 0x27, 0xf7, 0x62, 0x3c, 0x2a, 0x19, 0xdf, 0xff, 0x00, 
0x00, 0x1c, 0x09, 0x00, 0x2c, 0x9a, 0xc4, 0x46, 0xd4, 0x21, 0x6c, 0x48, 0x93, 0xf0, 0xef, 0x79, 
0x73, 0x67, 0xad, 0x8b, 0x32, 0x6e, 0x8a, 0xff, 0x27, 0xff, 0x6f, 0xd2, 0x2e, 0xfb, 0xc0, 0x98, 
0xac, 0x06, 0x80, 0xd2, 0x05, 0x80, 0x50, 0x6f, 0x02, 0x3c, 0x10, 0xc3, 0xda, 0x38, 0x55, 0xe3, 
0xe9, 0x98, 0xf8, 0xff, 0x92, 0x3e, 0x32, 0x8a, 0x3a, 0x84, 0xc3, 0xfc, 0x7f, 0x68, 0x6a, 0x5c, 
0x18, 0x73, 0x83, 0xef, 0x03, 0x00, 0x80, 0xc2, 0x26, 0xf3, 0x05, 0x80, 0x00, 0xa2, 0x4d, 0x7a, 
0xd3, 0x83, 0x51, 0xfb, 0xf5, 0xff, 0x03, 0xb2, 0x60, 0x5d, 0x32, 0x21, 0xa9, 0x64, 0xff, 0xdf, 
0x01, 0xa1, 0xd7, 0x70, 0x84, 0xce, 0x7f, 0x00, 0x00, 0xdf, 0x00, 0x05, 0x00, 0x4d, 0x90, 0xa6, 
0x00, 0x87, 0xc5, 0x45, 0x23, 0x18, 0xfe, 0x39, 0x50, 0xab, 0x27, 0x98, 0x68, 0x49, 0xa2, 0xff, 
0x97, 0xff, 0x57, 0x2e, 0x23, 0xa3, 0x7b, 0xe3, 0x32, 0x01, 0x00, 0x4a, 0x01, 0xc0, 0xb7, 0x06, 
0xc0, 0x17, 0x38, 0xd4, 0x10, 0x6f, 0x78, 0xdd, 0xf8, 0xff, 0x21, 0x69, 0xa4, 0x82, 0x94, 0xd3, 
0xa9, 0xfe, 0x7f, 0x9d, 0x90, 0x94, 0x31, 0x58, 0x98, 0x07, 0x78, 0x56, 0x00, 0x00, 0x0b, 0x54, 
0x02, 0xb8, 0x50, 0x24, 0xa3, 0x77, 0xce, 0x53, 0x7d, 0xf5, 0xff, 0xe1, 0x22, 0x8b, 0xb4, 0x38, 
0x49, 0xe4, 0xff, 0x3f, 0x33, 0xff, 0x7f, 0xef, 0xe9, 0x7f, 0xf0, 0x2d, 0x20, 0x90, 0x15, 0x71, 
0x00, 0x10, 0x6e, 0x89, 0x01, 0xa8, 0x74, 0x95, 0x4a, 0xff, 0x1f, 0x69, 0x61, 0xfc, 0x7d, 0xfa, 
0x65, 0x8b, 0x21, 0xff, 0xdf, 0x56, 0x2f, 0x05, 0x48, 0xf7, 0xff, 0x39, 0x64, 0x02, 0xcc, 0xa2, 
0xb1, 0x01, 0x40, 0xa9, 0x02, 0x00, 0x46, 0x21, 0x00, 0xef, 0x12, 0xe2, 0x4e, 0xc7, 0x52, 0x62, 
0x98, 0xe6, 0xff, 0xd9, 0xbc, 0x9f, 0xec, 0x9e, 0xcd, 0x06, 0xff, 0x2f, 0x4f, 0xb4, 0x14, 0x00, 
0x54, 0xcb, 0x43, 0xb8, 0x15, 0x00, 0x60, 0xaa, 0x07, 0x00, 0x0a, 0xc0, 0x2b, 0x00, 0xc7, 0xa5, 
0xad, 0x02, 0xdd, 0xff, 0x43, 0xa1, 0xa6, 0x17, 0x61, 0xbe, 0x00, 0xff, 0x9f, 0x81, 0x44, 0x7e, 
0x4a, 0x5a, 0xc1, 0x8c, 0xff, 0x00, 0x00, 0x36, 0x0e, 0x00, 0x00, 0x61, 0x53, 0x24, 0x3b, 0x4d, 
0xbb, 0x4f, 0xcc, 0x40, 0x84, 0x7f, 0xb6, 0x12, 0x11, 0x4d, 0x3d, 0x84, 0xab, 0x66, 0xfd, 0x3f, 
0xfd, 0xff, 0x65, 0xee, 0x43, 0xab, 0xb1, 0x10, 0x00, 0x16, 0x15, 0x00, 0x2c, 0x4b, 0x06, 0x1c, 
0x89, 0xef, 0x7d, 0xf9, 0x2e, 0xc0, 0x2b, 0xc2, 0x2d, 0x31, 0x17, 0xdc, 0xbd, 0x80, 0x90, 0xfc, 
0xbf, 0xff, 0xdf, 0x05, 0x91, 0x19, 0x04, 0xe0, 0x94, 0x07, 0xd1, 0x2e, 0x00, 0x00, 0x34, 0x10, 
0x00, 0xd4, 0x3c, 0x60, 0xdd, 0x6f, 0xef, 0x49, 0x2e, 0x6b, 0xd9, 0xff, 0x37, 0xb9, 0xaa, 0x69, 
0x28, 0x6d, 0x61, 0xfd, 0x7f, 0x52, 0xc6, 0xe5, 0xf7, 0xc2, 0xfb, 0x07, 0x20, 0x78, 0x96, 0x00, 
0x00, 0xa4, 0x15, 0xad, 0xe2, 0x0b, 0x43, 0x3a, 0x96, 0x48, 0xc0, 0xbf, 0x74, 0x5a, 0xfd, 0xd3, 
0x30, 0x26, 0x34, 0xdc, 0xfe, 0x1f, 0xf8, 0xff, 0xb3, 0x87, 0xea, 0x05, 0x60, 0x22, 0xa6, 0x01, 
0x00, 0x27, 0x01, 0x00, 0x20, 0xef, 0x00, 0x0f, 0x10, 0x6d, 0xa5, 0xca, 0x1a, 0x70, 0xab, 0xda, 
0xff, 0xef, 0x4a, 0xca, 0x82, 0x78, 0x91, 0x5a, 0x2b, 0xff, 0xff, 0x00, 0xe2, 0x04, 0x00, 0xe0, 
0x14, 0x05, 0x80, 0x59, 0x0d, 0xb9, 0x23, 0x88, 0x16, 0x2d, 0x63, 0x26, 0x00, 0x3a, 0x97, 0x97, 
0x53, 0x2a, 0xe3, 0xff, 0xef, 0xa9, 0xe1, 0xad, 0x84, 0x1b, 0x44, 0x48, 0xff, 0xff, 0x0f, 0x9a, 
0x03, 0x00, 0x00, 0x68, 0x00, 0x40, 0x45, 0xbd, 0x35, 0x4e, 0x54, 0x55, 0xa8, 0x06, 0x32, 0xe0, 
0x9f, 0x4d, 0xd2, 0x1e, 0x85, 0xf6, 0x16, 0xfd, 0xff, 0x00, 0xb0, 0x06, 0xb6, 0xae, 0xa8, 0xe3, 
0xff, 0x01, 0xc0, 0x53, 0x81, 0x00, 0x34, 0x7a, 0x00, 0x0f, 0x10, 0x1c, 0xac, 0x36, 0x49, 0x0b, 
0x61, 0xc8, 0xca, 0xff, 0x27, 0xec, 0xcd, 0xe1, 0xb5, 0xb1, 0x34, 0xd2, 0xfc, 0xff, 0x38, 0x80, 
0xcc, 0x8e, 0x39, 0xf0, 0x5f, 0x40, 0xfe, 0x01, 0xa0, 0xc1, 0x5c, 0x00, 0x80, 0xc1, 0x6b, 0x01, 
0xb5, 0xe4, 0xef, 0xc9, 0xf2, 0xff, 0x83, 0x74, 0x94, 0x86, 0xa5, 0xcb, 0xe1, 0xff, 0x1f, 0x54, 
0x00, 0xbc, 0xbd, 0x09, 0x25, 0xf9, 0xa7, 0x00, 0x58, 0x37, 0x14, 0x00, 0xa8, 0xa3, 0xe4, 0x1f, 
0x9e, 0x84, 0x40, 0x55, 0x7c, 0x3d, 0xc0, 0x3f, 0x38, 0x83, 0x47, 0x1a, 0x3b, 0xfe, 0xff, 0xcd, 
0xc4, 0x7c, 0x22, 0x2b, 0x2d, 0xa7, 0xff, 0x07, 0x80, 0x85, 0x07, 0x00, 0x82, 0xa0, 0x3a, 0x8a, 
0x61, 0x22, 0x6a, 0x48, 0x12, 0x93, 0xe0, 0x1f, 0xe5, 0x33, 0x0b, 0x40, 0x96, 0xab, 0xfd, 0xff, 
0xe2, 0xff, 0x57, 0xe0, 0x62, 0x98, 0x13, 0xf2, 0x0b, 0x5c, 0x1d, 0x04, 0x60, 0x06, 0x2f, 0x00, 
0x04, 0xc3, 0x31, 0xf5, 0xde, 0x8f, 0x4b, 0xea, 0xfe, 0x9f, 0x4b, 0xea, 0x70, 0x82, 0xb9, 0xb4, 
0x2b, 0xfe, 0x3f, 0x01, 0x85, 0xdc, 0x2a, 0x43, 0xfc, 0x07, 0xad, 0x06, 0x00, 0xde, 0x8a, 0x00, 
0xa0, 0xcf, 0xf8, 0xb2, 0x7b, 0x12, 0x10, 0x4c, 0x12, 0xa9, 0x8d, 0xc8, 0xe8, 0x87, 0x7f, 0xbd, 
0x46, 0x3d, 0x89, 0x02, 0x1e, 0x73, 0x4b, 0xfc, 0x3f, 0xf8, 0xff, 0xc5, 0xd8, 0x66, 0xd6, 0xe0, 
0x94, 0xa6, 0x04, 0x80, 0x84, 0x02, 0x80, 0xac, 0x52, 0x80, 0xcf, 0x4b, 0x06, 0x51, 0x1b, 0x83, 
0xc5, 0xba, 0xfc, 0xff, 0x67, 0xb4, 0x1c, 0x37, 0x56, 0x72, 0xf5, 0xff, 0x0b, 0x33, 0x77, 0xea, 
0x6f, 0xea, 0x01, 0xa2, 0x10, 0x00, 0x6c, 0x5a, 0x01, 0x80, 0xd3, 0x4b, 0x6b, 0xb3, 0xfc, 0xf4, 
0x26, 0x31, 0x53, 0x78, 0xc8, 0x10, 0x31, 0xa5, 0xf0, 0xff, 0x82, 0xb9, 0x75, 0x1e, 0xc5, 0xe5, 
0xfd, 0xff, 0x3f, 0x50, 0x10, 0x00, 0xdc, 0xf8, 0x00, 0x40, 0xf0, 0x4f, 0xf9, 0x4c, 0xbc, 0xc0, 
0xb4, 0x04, 0xfe, 0x57, 0x0b, 0x2b, 0x7c, 0x85, 0x66, 0x8b, 0x7f, 0x57, 0xfe, 0x3f, 0xcc, 0x75, 
0x54, 0x8a, 0x40, 0xed, 0xfe, 0x1f, 0x04, 0x94, 0x4a, 0x69, 0xbd, 0x03, 0x40, 0x88, 0x00, 0xc0, 
0x57, 0x07, 0xe0, 0x09, 0x0b, 0x6c, 0xa0, 0x80, 0x70, 0x21, 0x9b, 0xff, 0x5f, 0xe2, 0x76, 0x7e, 
0xe5, 0x7e, 0x85, 0x0f, 0xfe, 0xff, 0x69, 0x82, 0x40, 0x7f, 0x30, 0x74, 0x1e, 0xe0, 0x24, 0x01, 
0x80, 0xb1, 0x63, 0x00, 0xb0, 0xce, 0xd4, 0x43, 0x18, 0xbc, 0x57, 0x25, 0xa9, 0x23, 0x18, 0x80, 
0x3a, 0x51, 0xe0, 0xff, 0xbb, 0x37, 0xd4, 0xaa, 0x02, 0xd4, 0xff, 0xff, 0x7f, 0xd8, 0x62, 0x00, 
0xd8, 0x95, 0x2e, 0x00, 0x04, 0x52, 0x8f, 0x51, 0x6d, 0x81, 0x4a, 0x8f, 0x78, 0x11, 0x07, 0xaa, 
0x90, 0x5f, 0x09, 0x61, 0xf8, 0x97, 0x5e, 0x8c, 0xa8, 0x37, 0x87, 0xff, 0x57, 0xc8, 0x24, 0x9d, 
0xfe, 0x4e, 0xfb, 0xfe, 0x3f, 0x00, 0xcc, 0x11, 0x00, 0x04, 0xd6, 0x06, 0xf0, 0x80, 0x51, 0xaa, 
0xe6, 0x54, 0x89, 0xf8, 0xe4, 0x22, 0xff, 0x7f, 0x16, 0x95, 0x0a, 0x92, 0xe0, 0x83, 0x19, 0xa8, 
0xff, 0x1f, 0xc5, 0x1c, 0xb9, 0x7b, 0x52, 0x1e, 0xe0, 0x12, 0x00, 0xa0, 0x5b, 0x3e, 0x00, 0x18, 
0xa7, 0xff, 0x0c, 0xc0, 0xe7, 0xda, 0xcd, 0x14, 0x64, 0x6a, 0xf8, 0x84, 0xca, 0xfb, 0xfe, 0x7f, 
0x3b, 0xc4, 0xc1, 0x4b, 0xc6, 0xe6, 0xff, 0xdf, 0xf3, 0xc7, 0xf9, 0x17, 0x00, 0xd8, 0xb7, 0xf7, 
0x5e, 0x0d, 0x00, 0x70, 0xfd, 0x65, 0xbe, 0xdf, 0x57, 0x92, 0x15, 0xe3, 0x01, 0x30, 0x6a, 0x95, 
0x87, 0x7f, 0x95, 0xb2, 0xd2, 0x53, 0xf5, 0xff, 0x65, 0xb5, 0x59, 0x5d, 0xcb, 0xf7, 0xff, 0x01, 
0xe0, 0xda, 0x80, 0xb7, 0x1d, 0x00, 0xfe, 0x3a, 0xea, 0xa8, 0x29, 0x6d, 0x8d, 0xd3, 0xe8, 0x9f, 
0xd6, 0xfb, 0xac, 0x35, 0x80, 0xff, 0x96, 0x07, 0x03, 0x12, 0x58, 0x43, 0xff, 0x1f, 0x42, 0x45, 
0x6e, 0x4a, 0xff, 0xbf, 0x06, 0x21, 0xd9, 0x8f, 0x2f, 0xae, 0x7d, 0x00, 0xaa, 0x06, 0x80, 0xf1, 
0x55, 0x00, 0x00, 0xcc, 0xec, 0x48, 0xd7, 0x47, 0x13, 0x4f, 0xff, 0xff, 0xd1, 0x2a, 0x07, 0x29, 
0x7e, 0x2e, 0xdc, 0xf1, 0xff, 0xa7, 0x0f, 0x07, 0x48, 0x08, 0xff, 0x04, 0xe4, 0x00, 0x50, 0x9b, 
0x09, 0x00, 0xef, 0x28, 0xfe, 0x70, 0x8e, 0xb8, 0x9e, 0xbc, 0xa3, 0xbb, 0x07, 0xb5, 0x57, 0x91, 
0x35, 0xfc, 0x2f, 0x08, 0x08, 0x24, 0xf5, 0xfa, 0x7f, 0xc0, 0xe6, 0x2f, 0x2b, 0x8a, 0xf3, 0xff, 
0x00, 0x90, 0x67, 0x04, 0x00, 0xb0, 0x2b, 0xa4, 0xb7, 0x40, 0xb2, 0xb2, 0xaa, 0x29, 0xf9, 0xd1, 
0x00, 0x4f, 0x2a, 0x2d, 0x60, 0xf3, 0xbc, 0x1e, 0xd2, 0xff, 0x93, 0x51, 0xda, 0x35, 0xa8, 0xc6, 
0xff, 0x7f, 0x01, 0x71, 0x01, 0x00, 0xec, 0x3b, 0xba, 0x5a, 0x83, 0x88, 0xe7, 0x69, 0x3d, 0xf4, 
0x3d, 0x10, 0xa8, 0xfa, 0x83, 0x50, 0x14, 0x63, 0xe4, 0xfd, 0x7f, 0x29, 0xf9, 0x10, 0x66, 0x09, 
0xff, 0x7f, 0x5f, 0xbc, 0x4f, 0xa3, 0x35, 0xee, 0x3f, 0x00, 0x00, 0xf1, 0x57, 0x41, 0x0d, 0x08, 
0xe0, 0x4a, 0x5b, 0x30, 0x51, 0xb2, 0x36, 0xe0, 0x7f, 0x85, 0xea, 0x6c, 0xf1, 0x68, 0xea, 0xe3, 
0xca, 0xff, 0x3f, 0x69, 0x9c, 0xd3, 0xb7, 0xfa, 0x7f, 0x00, 0x80, 0x4d, 0x04, 0x00, 0xd2, 0xec, 
0x40, 0x26, 0x73, 0x70, 0x02, 0x5a, 0xe1, 0x43, 0x02, 0xf0, 0x24, 0x1c, 0xd5, 0x23, 0x8e, 0xfa, 
0xff, 0xbf, 0x9e, 0x36, 0x98, 0xb6, 0xa0, 0xb9, 0xf3, 0xff, 0x0f, 0xf0, 0x25, 0x00, 0x00, 0xb0, 
0x4a, 0x00, 0xa0, 0x3b, 0x83, 0x72, 0x91, 0xbc, 0xc6, 0x79, 0x9d, 0xdb, 0x05, 0x8f, 0x27, 0x72, 
0x87, 0x7b, 0x24, 0x3b, 0xfc, 0x3f, 0xb8, 0x4c, 0xbc, 0xd9, 0xbe, 0x7b, 0xf8, 0xff, 0xdd, 0xda, 
0x2d, 0x01, 0x2b, 0x24, 0x96, 0xe1, 0x1f, 0x00, 0x80, 0x49, 0x00, 0x80, 0xac, 0x07, 0xff, 0xad, 
0xc9, 0x59, 0x9d, 0x6f, 0xb0, 0x73, 0xe2, 0xa9, 0xfe, 0x7f, 0xa9, 0x6f, 0xeb, 0xef, 0x14, 0xea, 
0xff, 0x8b, 0x34, 0x26, 0x34, 0xc2, 0x38, 0x40, 0xa0, 0x1a, 0x00, 0x80, 0x08, 0x05, 0xf0, 0x10, 
0x46, 0xd0, 0x43, 0xc5, 0x19, 0x03, 0xff, 0x7f, 0x77, 0x4c, 0x11, 0xca, 0xf3, 0x2b, 0x28, 0xfe, 
0xff, 0x03, 0x18, 0x35, 0x10, 0xa8, 0xb3, 0x06, 0xc0, 0x9e, 0x45, 0x9d, 0x6d, 0x79, 0x08, 0x50, 
0x8d, 0x3f, 0x38, 0xeb, 0x91, 0xb6, 0x4a, 0x6d, 0x54, 0x2b, 0xe1, 0xff, 0xf7, 0x68, 0xab, 0x2f, 
0x3d, 0xc7, 0xff, 0x3b, 0xd1, 0x31, 0xf4, 0x1d, 0xcf, 0x7f, 0x00, 0x00, 0x56, 0x00, 0x00, 0xc9, 
0x28, 0x24, 0xa4, 0x03, 0xe6, 0xdc, 0x7f, 0x48, 0x84, 0x7f, 0x52, 0x32, 0x84, 0xca, 0xc9, 0x72, 
0xd3, 0x26, 0xfe, 0x3f, 0xf6, 0xff, 0xff, 0xb4, 0x08, 0x29, 0x49, 0x46, 0x09, 0x40, 0x26, 0x02, 
0x00, 0xd1, 0x31, 0x80, 0x07, 0xa2, 0x81, 0xeb, 0x64, 0x51, 0xd8, 0x9a, 0xff, 0x6f, 0x76, 0x16, 
0x57, 0xa6, 0xda, 0xaa, 0xdc, 0xff, 0xff, 0x00, 0x57, 0x07, 0x00, 0x14, 0x5a, 0x87, 0xf8, 0x98, 
0x90, 0x47, 0x16, 0x91, 0x1f, 0x00, 0x70, 0x08, 0x03, 0x84, 0x16, 0x8a, 0x32, 0x1f, 0x00, 0xff, 
0x7f, 0xc0, 0x90, 0x8b, 0x4d, 0x20, 0x65, 0xfa, 0xff, 0xff, 0xa0, 0xc8, 0x00, 0x00, 0xd4, 0x10, 
0x00, 0x00, 0xfc, 0xe9, 0xb3, 0x15, 0xc1, 0x27, 0xe7, 0x6d, 0x22, 0xfc, 0x03, 0xf4, 0x96, 0x37, 
0xc0, 0x60, 0xed, 0x75, 0xf9, 0xff, 0x76, 0x91, 0xda, 0xf0, 0x74, 0x0f, 0x37, 0xf6, 0xff, 0x00, 
0x30, 0x2c, 0x00, 0x20, 0x21, 0x42, 0x63, 0x4c, 0xed, 0xb3, 0xd1, 0x99, 0x00, 0x1e, 0xc6, 0xd9, 
0x18, 0x97, 0x4e, 0xb4, 0x62, 0x13, 0xff, 0x2f, 0xfe, 0x3f, 0x0f, 0x72, 0x8c, 0xb5, 0x4e, 0xcc, 
0xf5, 0x00, 0x33, 0x0c, 0x00, 0xc2, 0x81, 0x02, 0x00, 0x08, 0x31, 0x3f, 0xe0, 0x04, 0xc2, 0xa5, 
0x57, 0xfb, 0xff, 0x4b, 0xc8, 0xd4, 0x85, 0xa7, 0x75, 0x2e, 0x13, 0xd1, 0xff, 0x9f, 0x02, 0x08, 
0xba, 0xab, 0xff, 0xf5, 0x0f, 0x00, 0xa0, 0x30, 0x6b, 0xed, 0x00, 0x20, 0xa0, 0xd6, 0xe9, 0x9a, 
0x60, 0x76, 0xc7, 0x08, 0xfe, 0x81, 0x0a, 0x04, 0x9d, 0x43, 0x8d, 0x8f, 0xea, 0xff, 0x8f, 0x09, 
0xc1, 0xb9, 0x72, 0x83, 0x58, 0xfc, 0xff, 0x01, 0xe0, 0xc2, 0x01, 0x00, 0xb4, 0x27, 0x00, 0x1f, 
0xcc, 0xba, 0x21, 0x7e, 0x55, 0x7b, 0x72, 0x17, 0xfd, 0xff, 0xb3, 0x93, 0x52, 0xc8, 0x1b, 0xad, 
0xe7, 0xfc, 0xff, 0x3e, 0xe3, 0x09, 0x3b, 0xb6, 0x07, 0xb0, 0x55, 0x00, 0xc0, 0xcf, 0x6e, 0x9a, 
0x23, 0x83, 0x10, 0x70, 0x6b, 0xe7, 0x03, 0x00, 0xa4, 0x2c, 0x61, 0x35, 0x9f, 0x61, 0xdc, 0xfb, 
0x7f, 0xe6, 0xd4, 0xa9, 0x9d, 0x5d, 0x72, 0x38, 0xff, 0x0f, 0x34, 0xf1, 0xe2, 0x87, 0xd9, 0xff, 
0x01, 0x00, 0x0c, 0x13, 0x00, 0x40, 0x34, 0xa8, 0x2c, 0xf4, 0xd9, 0xad, 0xc6, 0x39, 0x11, 0x8f, 
0x4b, 0xf8, 0x9f, 0x3c, 0xc2, 0x78, 0x0a, 0x34, 0xc7, 0xff, 0x4f, 0x72, 0xe3, 0x69, 0x54, 0xba, 
0xff, 0x07, 0x80, 0x88, 0x10, 0x00, 0x5c, 0xc4, 0x5f, 0x03, 0xc4, 0x89, 0x6e, 0x1e, 0xb3, 0x68, 
0x4c, 0x00, 0x1f, 0x99, 0x78, 0xaf, 0x6c, 0x80, 0xec, 0xff, 0xb3, 0x83, 0x8f, 0x84, 0x2e, 0x0c, 
0xf5, 0xff, 0x0f, 0xb0, 0x28, 0x00, 0x80, 0x46, 0x0a, 0x00, 0x70, 0x15, 0x31, 0x85, 0x53, 0x2e, 
0x59, 0x93, 0x6d, 0x5c, 0xb9, 0x6e, 0xcd, 0x25, 0x8d, 0x55, 0x30, 0xf5, 0xff, 0x99, 0x91, 0xe7, 
0xbc, 0x1d, 0xcb, 0xff, 0x2f, 0xf7, 0x6d, 0x7b, 0x89, 0xd9, 0xf7, 0x0f, 0x00, 0xa0, 0x14, 0x00, 
0x30, 0x6e, 0x09, 0x83, 0xcc, 0x5a, 0xa7, 0xf3, 0x2d, 0x11, 0xfe, 0x57, 0xeb, 0xd4, 0x86, 0xb5, 
0x44, 0x78, 0x91, 0xff, 0xd7, 0xff, 0x3f, 0x86, 0x9e, 0x3b, 0x24, 0x19, 0x00, 0xaa, 0x0b, 0x00, 
0x58, 0x4f, 0xc1, 0x06, 0x65, 0x12, 0x97, 0xb2, 0x8e, 0x68, 0x05, 0xf8, 0x9c, 0x63, 0x71, 0x0a, 
0x53, 0xbd, 0x08, 0xd9, 0xff, 0xd7, 0x5a, 0x67, 0x33, 0xdb, 0xc7, 0xff, 0xaf, 0x85, 0xa0, 0xe3, 
0x37, 0x30, 0xfe, 0x00, 0xa0, 0x80, 0x4b, 0x01, 0x00, 0xb4, 0xe2, 0x98, 0xbe, 0xcc, 0xe8, 0xc2, 
0x35, 0xab, 0xdd, 0xac, 0xff, 0x27, 0x9c, 0xbc, 0xca, 0x5a, 0xa7, 0xfe, 0xff, 0x98, 0xae, 0xe6, 
0xf2, 0x21, 0x82, 0xf4, 0x1f, 0x00, 0x62, 0x73, 0x00, 0xa0, 0x58, 0x57, 0x45, 0x19, 0x19, 0x67, 
0x41, 0x1d, 0xa0, 0x97, 0xf0, 0x5f, 0xd9, 0x0b, 0x8c, 0x00, 0x6c, 0xe9, 0xff, 0xdf, 0xdb, 0xac, 
0x2f, 0x90, 0x5f, 0xfe, 0x1f, 0x00, 0x84, 0x18, 0x00, 0xec, 0x9e, 0xa4, 0x87, 0x22, 0x2d, 0x23, 
0x04, 0x9c, 0xba, 0x43, 0x80, 0x4f, 0x71, 0x6a, 0xf2, 0x79, 0xf5, 0x96, 0xca, 0xff, 0xff, 0x30, 
0x5b, 0xa9, 0x92, 0x5e, 0xf4, 0xff, 0x07, 0x1e, 0x6d, 0x4a, 0x7c, 0x80, 0x05, 0x00, 0x00, 0xd6, 
0x16, 0x00, 0x84, 0x99, 0xb1, 0x56, 0xef, 0xc7, 0x10, 0xea, 0x13, 0xfa, 0xff, 0x2a, 0x6e, 0x9e, 
0x67, 0x54, 0xef, 0xfe, 0xff, 0x0e, 0xa5, 0x80, 0x88, 0x08, 0xb6, 0xff, 0x00, 0x00, 0x67, 0x41, 
0x10, 0x3e, 0x00, 0x80, 0x32, 0xa1, 0xe3, 0x87, 0x38, 0x4d, 0x73, 0xd3, 0x84, 0x7f, 0xa3, 0xfd, 
0xd1, 0x9b, 0x3a, 0x79, 0x73, 0xf8, 0xff, 0x67, 0xec, 0x97, 0xb3, 0x80, 0x12, 0xff, 0x3f, 0x00, 
0x38, 0x31, 0x08, 0x88, 0xab, 0x4c, 0xd4, 0x8e, 0x18, 0xbc, 0xbd, 0xdb, 0x07, 0xe0, 0xc3, 0xf0, 
0x12, 0x22, 0x89, 0x11, 0xd2, 0x93, 0xff, 0x07, 0xfe, 0xbf, 0x28, 0xc7, 0x83, 0xc0, 0x0c, 0x39, 
0x7d, 0x1f, 0x30, 0xd5, 0x01, 0x20, 0x4b, 0x98, 0x08, 0x80, 0xf6, 0xa4, 0x97, 0xc9, 0x1d, 0xba, 
0xf4, 0xff, 0xf1, 0x41, 0xa5, 0x09, 0x58, 0xec, 0x18, 0xfa, 0xff, 0x67, 0xb2, 0xa3, 0x18, 0x63, 
0xf9, 0x3f, 0x5c, 0x2a, 0x00, 0x50, 0xf2, 0x1d, 0x00, 0x02, 0x21, 0x21, 0xe0, 0xd7, 0xf7, 0xe1, 
0x81, 0x62, 0xf0, 0x8f, 0x3b, 0x7f, 0x7c, 0x5b, 0xcd, 0x21, 0xfd, 0xbf, 0x1f, 0x63, 0xe0, 0x18, 
0xe8, 0xb0, 0xe2, 0xff, 0x01, 0x40, 0x88, 0x4e, 0x9d, 0x20, 0x10, 0x49, 0xaa, 0xc1, 0x93, 0x55, 
0x37, 0x00, 0x05, 0xf8, 0x4d, 0x45, 0x3a, 0xb8, 0x1e, 0x28, 0xf9, 0x7f, 0x39, 0x04, 0x4a, 0xe1, 
0xec, 0xa9, 0xfe, 0xff, 0x01, 0x50, 0x36, 0x00, 0x90, 0xd2, 0x02, 0x00, 0x65, 0xcf, 0x9a, 0xce, 
0xd9, 0x5f, 0x97, 0xd4, 0x50, 0x50, 0x0d, 0xb5, 0x23, 0x84, 0xff, 0xe6, 0xff, 0x0b, 0x06, 0x84, 
0x25, 0x75, 0x2f, 0x51, 0xfb, 0xff, 0xff, 0xc3, 0x7b, 0x01, 0x00, 0x00, 0x94, 0x06, 0x00, 0x90, 
0x16, 0x3f, 0x5a, 0x18, 0xb4, 0xfe, 0xb5, 0x59, 0x02, 0xff, 0x00, 0x58, 0xdf, 0x08, 0x2b, 0x35, 
0x9d, 0x05, 0xfe, 0x9f, 0x73, 0x4a, 0x89, 0xcd, 0xa9, 0x92, 0x53, 0xfe, 0x5f, 0x00, 0xa2, 0x12, 
0x00, 0x18, 0x90, 0x00, 0x3c, 0x52, 0x2d, 0xb5, 0x7c, 0x28, 0xc8, 0x09, 0xf1, 0xff, 0x43, 0x2b, 
0x3e, 0x77, 0x45, 0x71, 0x6c, 0x60, 0xfd, 0xff, 0x6f, 0x0f, 0xe9, 0x49, 0xa4, 0x95, 0xc9, 0x3d, 
0x00, 0x00, 0xac, 0x24, 0x03, 0xf4, 0x00, 0x30, 0x03, 0x7c, 0xe7, 0x8c, 0x21, 0xc9, 0x23, 0xdc, 
0xff, 0x1f, 0xd0, 0xb9, 0x06, 0x44, 0x08, 0xff, 0xff, 0xc7, 0x88, 0x4e, 0xa5, 0x31, 0xad, 0xf9, 
0x07, 0x00, 0x20, 0x95, 0xcf, 0x0b, 0x00, 0x48, 0x3d, 0x20, 0xbf, 0x8c, 0x2b, 0x92, 0x16, 0xfe, 
0xaf, 0xd4, 0x82, 0x06, 0x5a, 0x72, 0x43, 0xe4, 0xff, 0x1f, 0x7a, 0x4a, 0x67, 0xb4, 0xfb, 0xfe, 
0xff, 0x37, 0x86, 0xfa, 0xbd, 0x7f, 0x39, 0x0a, 0x00, 0x71, 0x13, 0x00, 0x68, 0x1e, 0x01, 0xfc, 
0x48, 0xa9, 0x21, 0xb0, 0x18, 0x21, 0xd4, 0xc5, 0xff, 0xbf, 0x04, 0xc0, 0x66, 0xfd, 0xc9, 0xfa, 
0xfb, 0xff, 0x9a, 0x0e, 0xbd, 0xfb, 0x09, 0x5a, 0x1e, 0x00, 0x00, 0x2c, 0x92, 0x98, 0x14, 0x00, 
0xf8, 0x86, 0x91, 0x1b, 0x38, 0x9b, 0x44, 0x5e, 0x01, 0xfd, 0x3f, 0x7b, 0x7e, 0x40, 0x89, 0x98, 
0xfe, 0xff, 0xec, 0xa5, 0x8f, 0x3e, 0xa8, 0x46, 0xfc, 0x0f, 0x00, 0x80, 0x4c, 0x08, 0x00, 0x62, 
0x03, 0x1f, 0x12, 0xc6, 0x86, 0xd2, 0x1c, 0x0f, 0x35, 0x1a, 0xfc, 0x27, 0x0c, 0x9a, 0x06, 0xa2, 
0xa4, 0x2d, 0xfc, 0x7f, 0x3a, 0xed, 0x0c, 0x0a, 0x75, 0xee, 0xff, 0x0f, 0x00, 0x51, 0x0d, 0x00, 
0xdb, 0xb6, 0xa8, 0x04, 0xd9, 0xc6, 0x0e, 0xec, 0x2c, 0x07, 0xe0, 0x25, 0xc2, 0xd4, 0xdc, 0xef, 
0xf7, 0xf2, 0xff, 0x58, 0xb4, 0x07, 0xe2, 0x78, 0x15, 0xfc, 0xff, 0x03, 0xac, 0x27, 0x00, 0x48, 
0x00, 0xb0, 0x31, 0x35, 0x47, 0x90, 0x0b, 0xd2, 0x01, 0xc0, 0xb6, 0xab, 0x7a, 0x34, 0x24, 0xdf, 
0x09, 0x3f, 0x55, 0xc9, 0xfa, 0xff, 0x43, 0x96, 0x25, 0x96, 0x52, 0x0a, 0xf9, 0x7f, 0x0a, 0xcb, 
0x88, 0x70, 0x1a, 0xac, 0xfe, 0x41, 0x02, 0x96, 0x04, 0x00, 0x54, 0x93, 0xc3, 0x3f, 0xd4, 0x10, 
0x81, 0x50, 0xed, 0x0c, 0x1f, 0x60, 0xff, 0x7f, 0xd0, 0x53, 0x0b, 0xb6, 0xce, 0x52, 0xcb, 0xff, 
0xb7, 0x2f, 0xb1, 0x7a, 0x46, 0xff, 0x49, 0x28, 0x00, 0xb4, 0x12, 0x00, 0xd4, 0x97, 0x0b, 0xf0, 
0x00, 0xe4, 0x2a, 0x70, 0x79, 0x14, 0x00, 0xf4, 0xff, 0x14, 0x27, 0x90, 0x13, 0xdb, 0xfe, 0x09, 
0xeb, 0xff, 0x6f, 0x26, 0xfa, 0x00, 0xec, 0x06, 0xc3, 0xf6, 0x23, 0x00, 0x60, 0x29, 0x00, 0xc0, 
0x1a, 0x31, 0x31, 0x15, 0x79, 0x87, 0x93, 0x57, 0xff, 0xbf, 0x74, 0xd6, 0x19, 0x95, 0x50, 0x0e, 
0xfa, 0xff, 0x7f, 0x80, 0x3a, 0x00, 0x90, 0x65, 0x5d, 0x00, 0xd7, 0x85, 0x62, 0xdc, 0xaf, 0xf8, 
0x60, 0x55, 0x04, 0x0c, 0x45, 0xc1, 0xad, 0x05, 0xff, 0xc1, 0x51, 0x4f, 0xb3, 0x26, 0x58, 0x34, 
0x32, 0x56, 0xff, 0x0f, 0xfe, 0x3f, 0x71, 0xe7, 0x7d, 0xab, 0x0f, 0x6d, 0x1f, 0x00, 0xa2, 0x1c, 
0x00, 0x86, 0x1b, 0x06, 0x78, 0xc0, 0x8d, 0x63, 0xec, 0xf9, 0x8c, 0xaf, 0xff, 0x7f, 0x42, 0x02, 
0x15, 0x2e, 0x23, 0x61, 0xfd, 0xff, 0xff, 0x00, 0x5e, 0x00, 0x80, 0x21, 0x8b, 0x00, 0x80, 0xdf, 
0x9e, 0xfe, 0x95, 0xaa, 0xaa, 0x04, 0xaa, 0x12, 0x6c, 0x6f, 0x0f, 0x26, 0xf2, 0x56, 0xff, 0x2f, 
0x8c, 0xe3, 0xfd, 0xae, 0xa0, 0x56, 0xfb, 0xff, 0x7f, 0x30, 0x72, 0x00, 0x20, 0x24, 0x0d, 0x00, 
0xa2, 0x1e, 0xed, 0x40, 0x93, 0x6e, 0x4e, 0x78, 0xcd, 0xe1, 0x1f, 0xd2, 0x6d, 0xc1, 0x5c, 0x95, 
0x9a, 0x23, 0x29, 0xfa, 0xff, 0xd0, 0x2c, 0x9a, 0x3d, 0xa6, 0x8c, 0xfd, 0xff, 0x53, 0x1d, 0xe5, 
0xed, 0x4b, 0x63, 0x7e, 0x00, 0xa0, 0x0d, 0x02, 0x50, 0xb8, 0x00, 0xe0, 0x91, 0x6c, 0x08, 0x51, 
0xd1, 0xa9, 0xbc, 0xff, 0x87, 0x4b, 0x25, 0xcd, 0xc5, 0x8c, 0xb6, 0xfd, 0xff, 0x03, 0x64, 0x09, 
0x00, 0x8c, 0xe0, 0x0b, 0xde, 0x7d, 0x4d, 0x11, 0x58, 0x8d, 0x00, 0x00, 0x66, 0xc6, 0xa5, 0x03, 
0xfb, 0x8a, 0xd2, 0x00, 0xc3, 0xff, 0x73, 0xa6, 0x3b, 0xa0, 0xc7, 0x59, 0x63, 0xc0, 0xff, 0xff, 
0x43, 0xa9, 0x03, 0xc0, 0x3f, 0x60, 0x6d, 0x9e, 0x7f, 0x2b, 0x00, 0x74, 0x6e, 0xca, 0x80, 0x99, 
0xca, 0xa5, 0x72, 0x6e, 0x55, 0xc1, 0xbf, 0x85, 0x7c, 0x52, 0xe8, 0xfc, 0xf0, 0xff, 0x82, 0x12, 
0x24, 0x0c, 0x29, 0xe5, 0xff, 0x01, 0x80, 0x97, 0x10, 0x00, 0xf8, 0xab, 0xff, 0x17, 0x08, 0x71, 
0x5e, 0x96, 0x26, 0x00, 0xf8, 0xf9, 0xe2, 0x52, 0x45, 0x1d, 0x29, 0x68, 0x3f, 0x4a, 0xff, 0x2f, 
0xff, 0x5f, 0x1b, 0xd9, 0x7d, 0x02, 0x77, 0x96, 0x07, 0xb0, 0x25, 0x00, 0x80, 0x29, 0x02, 0x00, 
0x0c, 0xc2, 0xe6, 0x4e, 0x73, 0x14, 0x99, 0x49, 0x71, 0x4f, 0xf0, 0xac, 0x2b, 0x47, 0x8c, 0xfe, 
0xff, 0xc2, 0x07, 0x8f, 0x48, 0x88, 0xfc, 0xff, 0x3f, 0x04, 0x29, 0x00, 0x40, 0x18, 0x02, 0x00, 
0x44, 0xfe, 0x8e, 0xad, 0x44, 0xf3, 0x36, 0xec, 0xcc, 0xc2, 0xbf, 0x48, 0x90, 0xb7, 0x33, 0x94, 
0x89, 0xbe, 0x96, 0xfe, 0x1f, 0x4b, 0x5f, 0xbc, 0x95, 0x69, 0xec, 0xff, 0x07, 0x80, 0xfc, 0x09, 
0x00, 0x80, 0xa5, 0xe6, 0x3d, 0x5b, 0xcb, 0x55, 0x4b, 0x75, 0x06, 0x00, 0x3e, 0x49, 0x12, 0xcc, 
0xce, 0xaa, 0xda, 0xc6, 0x15, 0xff, 0xdf, 0xff, 0x5f, 0x09, 0xe2, 0x88, 0x78, 0xe7, 0x01, 0xf2, 
0x16, 0x20, 0x00, 0xa5, 0x15, 0x00, 0xe4, 0xe8, 0x05, 0xda, 0xad, 0x1c, 0x42, 0x2c, 0xd1, 0x2e, 
0xa7, 0x66, 0x7c, 0xeb, 0xe5, 0x43, 0x25, 0xff, 0x8f, 0x6f, 0x90, 0x11, 0x88, 0x72, 0xe0, 0xff, 
0x9b, 0x7c, 0xae, 0x48, 0x3b, 0x55, 0x9a, 0xff, 0x00, 0x00, 0x23, 0x00, 0x04, 0xba, 0x2b, 0xf8, 
0x27, 0xf8, 0xf1, 0xb6, 0x53, 0xf3, 0x26, 0xd4, 0xfc, 0x7f, 0x4d, 0x99, 0x7b, 0x04, 0xca, 0xd1, 
0xe0, 0xff, 0x01, 0x60, 0x8c, 0x34, 0x70, 0x03, 0x00, 0x38, 0x61, 0xee, 0x50, 0xb2, 0x03, 0x58, 
0x08, 0xf0, 0x84, 0x4a, 0x6d, 0x42, 0x2d, 0x4f, 0xfc, 0x91, 0xff, 0xff, 0x18, 0xe5, 0x16, 0xba, 
0x66, 0x43, 0xf9, 0xff, 0x07, 0x90, 0x59, 0x00, 0x08, 0xb0, 0x31, 0xad, 0xeb, 0x44, 0xbf, 0xf8, 
0x0e, 0x5c, 0x01, 0xe0, 0x9f, 0x12, 0x66, 0x19, 0x46, 0x18, 0x2e, 0x44, 0xff, 0xbf, 0x52, 0x21, 
0x12, 0x98, 0xdc, 0x4f, 0xfb, 0xff, 0x7f, 0x00, 0x54, 0x04, 0xb8, 0x4e, 0x01, 0x00, 0xc2, 0x0e, 
0xdd, 0x00, 0x87, 0xd4, 0xaa, 0x1a, 0xfe, 0x0f, 0x25, 0x99, 0x2a, 0xc8, 0x7c, 0x23, 0x87, 0x69, 
0xfd, 0x7f, 0xe1, 0x7d, 0x73, 0x05, 0x9a, 0x95, 0xf9, 0x7f, 0xe9, 0x43, 0x45, 0x38, 0x21, 0xd9, 
0x00, 0x80, 0x0a, 0x01, 0xa0, 0x0a, 0x0e, 0xe0, 0x67, 0xdd, 0xad, 0xec, 0x7d, 0x29, 0xa5, 0xa3, 
0xf1, 0xff, 0x06, 0x90, 0x7d, 0xa6, 0x65, 0x29, 0xfc, 0xff, 0x2a, 0x01, 0xd3, 0x70, 0x32, 0xcf, 
0x0f, 0x50, 0xf4, 0x00, 0x00, 0x02, 0x0f, 0x00, 0x00, 0xce, 0x84, 0x8b, 0x14, 0xec, 0x9a, 0x03, 
0x99, 0xfe, 0x7f, 0x76, 0x52, 0x4a, 0x8d, 0x63, 0xe2, 0x14, 0xba, 0xff, 0xbf, 0x72, 0x00, 0xe9, 
0xcb, 0xed, 0xff, 0x00, 0x00, 0xb6, 0xa0, 0xae, 0x08, 0x00, 0xd0, 0x14, 0xe0, 0x79, 0x17, 0x49, 
0x1d, 0x2b, 0x0a, 0xfe, 0xc3, 0x6a, 0x6f, 0x86, 0x57, 0x11, 0x1b, 0xff, 0xff, 0x86, 0x33, 0x64, 
0xef, 0xb2, 0x0b, 0xf9, 0x7f, 0x00, 0x90, 0x38, 0x00, 0x88, 0x25, 0x49, 0x6e, 0x95, 0xc4, 0x87, 
0xb1, 0x84, 0x07, 0x78, 0x06, 0x52, 0x58, 0x83, 0x45, 0xf6, 0x23, 0x64, 0xfe, 0x7f, 0xfc, 0xff, 
0xad, 0x18, 0x8e, 0x36, 0x03, 0x41, 0xe2, 0x01, 0x64, 0x11, 0x00, 0x10, 0xb9, 0x03, 0x80, 0x70, 
0x18, 0xec, 0x86, 0xb0, 0x98, 0x6e, 0x4b, 0xcd, 0xff, 0x9f, 0xa0, 0x10, 0xf1, 0x39, 0xe7, 0xe4, 
0xf0, 0xff, 0xef, 0x14, 0xc4, 0x7b, 0x56, 0x35, 0xfe, 0x03, 0x05, 0x02, 0x00, 0x45, 0x1a, 0x00, 
0x1a, 0x0c, 0xe0, 0x1f, 0x4c, 0xad, 0xec, 0xb1, 0x6a, 0xe0, 0x1f, 0xf1, 0xfa, 0x8a, 0x13, 0x68, 
0x4d, 0xff, 0x7f, 0x5a, 0x00, 0x1f, 0xac, 0x7c, 0x65, 0xfc, 0x7f, 0x00, 0x38, 0x29, 0x0c, 0x00, 
0x48, 0x5e, 0x4f, 0x3d, 0x45, 0x1d, 0xa2, 0x10, 0x43, 0x24, 0xc0, 0x67, 0x16, 0x3f, 0x7f, 0xad, 
0x1e, 0x99, 0xff, 0x5f, 0x86, 0xf4, 0xfc, 0x7b, 0x37, 0x7c, 0xfd, 0xff, 0x03, 0x60, 0x25, 0x00, 
0xf8, 0x92, 0x15, 0xe4, 0x62, 0x73, 0xbd, 0x23, 0x00, 0x00, 0x00, 0x6c, 0x0d, 0x16, 0x43, 0x50, 
0x23, 0xb1, 0x91, 0x08, 0xff, 0xff, 0xcd, 0x75, 0x5b, 0x22, 0x89, 0x0d, 0xfc, 0x3f, 0x0a, 0x35, 
0xcc, 0x2a, 0xef, 0xff, 0x07, 0x00, 0x10, 0x44, 0x03, 0xc0, 0x43, 0x38, 0xe7, 0x6d, 0x01, 0xe8, 
0x18, 0x2f, 0x9a, 0x04, 0xfc, 0x33, 0x4a, 0x17, 0x2b, 0xa0, 0xc1, 0x3b, 0xff, 0x5f, 0x0d, 0x37, 
0x54, 0x3c, 0x30, 0xed, 0xff, 0x03, 0x00, 0xf9, 0x02, 0x40, 0x3a, 0xa7, 0xf6, 0x3d, 0xd2, 0x1f, 
0x21, 0x04, 0x3f, 0x02, 0xf8, 0xea, 0xad, 0xd1, 0x0c, 0x69, 0x4a, 0xec, 0xff, 0x0f, 0x05, 0x96, 
0xd9, 0x51, 0xd6, 0xff, 0xe7, 0x20, 0x4a, 0xde, 0x27, 0xe8, 0x07, 0x90, 0x5d, 0x00, 0x68, 0x0f, 
0x1f, 0x00, 0x58, 0xb8, 0x40, 0x2f, 0x9c, 0xe6, 0xa3, 0x90, 0x56, 0xf0, 0x07, 0x04, 0x50, 0xfa, 
0xff, 0xb4, 0xdf, 0xdf, 0xca, 0x3a, 0xdb, 0xd5, 0xff, 0xff, 0x87, 0x46, 0x05, 0x80, 0x80, 0x87, 
0x01, 0xa0, 0x40, 0x67, 0xb0, 0x63, 0x9c, 0x3e, 0xee, 0xd5, 0x15, 0xfc, 0x1f, 0x3b, 0x1d, 0xe7, 
0x48, 0xce, 0x2c, 0x0e, 0x82, 0xff, 0x07, 0x60, 0xd0, 0x3c, 0xe9, 0xe5, 0xff, 0x6b, 0x83, 0x8b, 
0xb0, 0x29, 0xb4, 0xa9, 0x11, 0x00, 0x12, 0x0d, 0x00, 0x2e, 0xc4, 0x02, 0x7d, 0xe7, 0x84, 0x71, 
0x00, 0x08, 0x61, 0xda, 0xff, 0x0b, 0x5b, 0xec, 0x3a, 0x12, 0xd5, 0xfb, 0xff, 0xb3, 0xcf, 0xb8, 
0xe2, 0x29, 0x98, 0xdc, 0x07, 0xf0, 0x3b, 0x08, 0x10, 0xd1, 0x50, 0x00, 0x50, 0x41, 0x18, 0x6b, 
0x5d, 0x4d, 0xb5, 0xa8, 0x90, 0xff, 0x5f, 0x6a, 0x19, 0xab, 0xe8, 0xcf, 0xf6, 0xff, 0xab, 0x25, 
0xde, 0xde, 0x8c, 0xf1, 0x1f, 0x3a, 0x0a, 0x00, 0xf2, 0xac, 0x06, 0x80, 0xca, 0x28, 0x96, 0x9c, 
0xe4, 0xe5, 0xa3, 0xc2, 0x3f, 0xdd, 0x8a, 0x1e, 0x61, 0x9b, 0xef, 0x18, 0xe0, 0xff, 0x4b, 0x7b, 
0x71, 0x71, 0x5d, 0xe5, 0xff, 0x53, 0xc8, 0x7f, 0xa1, 0x2c, 0x1e, 0x0d, 0x02, 0x60, 0x62, 0x00, 
0xe0, 0xf2, 0x1d, 0xe0, 0x29, 0xa4, 0xa9, 0xb5, 0x75, 0x9a, 0xf4, 0xd5, 0xfa, 0x7f, 0x44, 0x14, 
0xe8, 0xac, 0x92, 0x4f, 0x06, 0xff, 0xaf, 0xf1, 0x9b, 0x2b, 0x51, 0x55, 0x9e, 0x78, 0x80, 0x26, 
0x05, 0x00, 0x79, 0xcc, 0x01, 0x00, 0x6b, 0x3d, 0xe9, 0x01, 0x61, 0x0c, 0x75, 0xea, 0xff, 0x53, 
0x30, 0x45, 0xe5, 0xef, 0x8f, 0xf6, 0xff, 0x37, 0xd4, 0xd8, 0x85, 0xbc, 0xf5, 0x1f, 0xca, 0x1e, 
0x00, 0x86, 0x0c, 0x11, 0x00, 0x3c, 0x8d, 0xa3, 0x69, 0x83, 0x48, 0xc4, 0x24, 0xf4, 0xd0, 0x9a, 
0x9c, 0x83, 0xa8, 0xf0, 0x3f, 0xee, 0xb2, 0xd2, 0x88, 0x1a, 0xdc, 0x16, 0xa9, 0xff, 0xe7, 0xff, 
0x4f, 0x37, 0x3b, 0x9a, 0x57, 0x2a, 0x06, 0x00, 0xc6, 0x09, 0x00, 0x84, 0x06, 0x00, 0xf8, 0x1c, 
0x7c, 0x16, 0x06, 0x88, 0xe2, 0x22, 0x2a, 0xf3, 0xff, 0x8d, 0x05, 0x54, 0x4f, 0x4c, 0x2a, 0x71, 
0xe6, 0xff, 0xa7, 0x66, 0x44, 0x78, 0x8d, 0x4e, 0xf6, 0x00, 0x00, 0x50, 0xfd, 0x03, 0x20, 0x02, 
0x00, 0x10, 0xa7, 0xa9, 0x1d, 0xad, 0x5a, 0x13, 0x0c, 0xfe, 0x5f, 0x79, 0x65, 0xc5, 0xa9, 0xd0, 
0xd3, 0x34, 0xff, 0x7f, 0xe5, 0x71, 0xea, 0x86, 0x93, 0xd8, 0xcc, 0x3f, 0x00, 0x00, 0x18, 0x02, 
0x00, 0x85, 0x0c, 0xfe, 0x03, 0xc7, 0xa9, 0x0f, 0xe9, 0x86, 0xf0, 0xd3, 0x50, 0xff, 0x8f, 0x42, 
0xb5, 0xc2, 0x3d, 0x32, 0x25, 0x35, 0xff, 0x8f, 0xd1, 0x21, 0xb2, 0xcd, 0x88, 0x52, 0x02, 0x00, 
0xf4, 0x00, 0x80, 0x60, 0x16, 0x00, 0x2f, 0xdc, 0xd7, 0x65, 0x81, 0x44, 0x60, 0x41, 0xff, 0x6f, 
0xed, 0xea, 0xde, 0xa3, 0x93, 0x12, 0xf9, 0xff, 0x07, 0x98, 0x38, 0x00, 0x20, 0x65, 0x35, 0xc7, 
0x86, 0x69, 0x80, 0xa7, 0x78, 0x89, 0x08, 0x01, 0x00, 0x77, 0x89, 0xb0, 0xe4, 0x5a, 0x80, 0xf5, 
0xff, 0x3c, 0x05, 0x48, 0x4f, 0x36, 0xab, 0x63, 0xb6, 0xff, 0x9f, 0x4b, 0x76, 0x8c, 0x1f, 0xc7, 
0x27, 0xfe, 0x83, 0x00, 0x44, 0x1c, 0x00, 0x08, 0xda, 0x82, 0x7f, 0xa2, 0x43, 0xc3, 0xda, 0x0e, 
0x1b, 0x99, 0xfa, 0xff, 0xad, 0x70, 0x49, 0xc9, 0x10, 0xff, 0x91, 0xff, 0x07, 0x80, 0xa9, 0x04, 
0x00, 0xe0, 0x91, 0x0c, 0xa4, 0x44, 0x80, 0x79, 0x2a, 0x86, 0x04, 0x79, 0x09, 0xe0, 0xd1, 0x72, 
0xb5, 0x6f, 0x3b, 0x1a, 0xd5, 0xc2, 0xff, 0xb7, 0x5c, 0x56, 0x10, 0x32, 0x6d, 0xfb, 0xff, 0x0f, 
0xa0, 0x7a, 0x00, 0x00, 0x04, 0x4a, 0x00, 0x30, 0x60, 0x18, 0x32, 0x87, 0x47, 0x4a, 0x57, 0x49, 
0x43, 0xcf, 0xf0, 0x06, 0xb1, 0xd0, 0x60, 0xff, 0xdf, 0x62, 0xb8, 0x8f, 0xf1, 0x06, 0xb7, 0xfb, 
0xff, 0x7f, 0x20, 0x11, 0x80, 0xd8, 0x2f, 0x00, 0x00, 0x49, 0x72, 0x25, 0x28, 0xb2, 0x2a, 0x3d, 
0x33, 0x87, 0x7f, 0x64, 0x1d, 0x49, 0x9d, 0x7e, 0x61, 0xd7, 0xff, 0x1f, 0xe5, 0xd0, 0x13, 0x88, 
0x18, 0xc4, 0xff, 0x03, 0x00, 0xc5, 0x46, 0x2f, 0x05, 0x00, 0x50, 0x21, 0x29, 0x49, 0x3d, 0x1d, 
0xc4, 0xbd, 0x09, 0xf0, 0x11, 0x88, 0x31, 0xfc, 0x8e, 0xe1, 0xa0, 0xb8, 0x0b, 0xf8, 0x7f, 0x2a, 
0xb1, 0x25, 0xe7, 0xcb, 0xa6, 0xe4, 0xff, 0xb5, 0x1a, 0xe3, 0xf8, 0x6c, 0x7c, 0x45, 0x4f, 0x00, 
0x20, 0x90, 0x07, 0x00, 0xa2, 0x41, 0x4b, 0x2f, 0xbd, 0x9c, 0xd3, 0x87, 0x35, 0xe4, 0xff, 0xb7, 
0x07, 0x02, 0x50, 0x03, 0x36, 0xf8, 0xff, 0x7f, 0xb8, 0x59, 0x00, 0x80, 0xa0, 0x3c, 0x00, 0x0a, 
0xc7, 0xa3, 0x4f, 0x95, 0x0e, 0x82, 0x7c, 0x16, 0x09, 0xff, 0xec, 0x6a, 0x7a, 0xa4, 0xea, 0x24, 
0xff, 0xff, 0x27, 0x85, 0x47, 0x41, 0x2d, 0xd8, 0xe0, 0xff, 0x01, 0x80, 0xcb, 0x00, 0x00, 0xa8, 
0x28, 0xeb, 0x91, 0x22, 0xc7, 0xad, 0x92, 0x04, 0x2a, 0x4b, 0x03, 0x3c, 0x18, 0x78, 0x72, 0x47, 
0xa2, 0xe2, 0xc0, 0xff, 0x1f, 0x40, 0xf0, 0x15, 0x13, 0xdb, 0xbf, 0xff, 0xff, 0x01, 0xd4, 0x1e, 
0x40, 0x10, 0xac, 0x06, 0x00, 0x9c, 0x54, 0x3a, 0x39, 0x4c, 0x40, 0xd0, 0x4b, 0x1c, 0xc2, 0x1e, 
0x62, 0xcd, 0x45, 0x69, 0xf5, 0xff, 0x48, 0x08, 0xa0, 0x9d, 0x08, 0xa2, 0xc9, 0xff, 0xff, 0x07, 
0x45, 0x06, 0x00, 0x52, 0xba, 0x40, 0x70, 0x26, 0x6b, 0xc1, 0x5b, 0xcb, 0x98, 0x29, 0xec, 0x1b, 
0xfc, 0x03, 0x20, 0x21, 0x60, 0x14, 0xcb, 0xff, 0x8f, 0x6c, 0x34, 0x96, 0x85, 0x06, 0xa9, 0xd7, 
0xff, 0x03, 0x40, 0x00, 0x09, 0x00, 0x59, 0x4c, 0xfc, 0xfa, 0x0f, 0x29, 0xae, 0xa3, 0x05, 0x21, 
0x09, 0xc0, 0x6f, 0xec, 0x1f, 0xd8, 0x34, 0x11, 0x12, 0xfd, 0xff, 0x00, 0x06, 0xee, 0xdb, 0x59, 
0x52, 0xff, 0xff, 0x23, 0x54, 0x31, 0x00, 0x28, 0x06, 0x01, 0x00, 0x5a, 0xb1, 0x00, 0x3d, 0x80, 
0x41, 0x81, 0x6f, 0x00, 0x68, 0xec, 0x73, 0x01, 0x89, 0xcc, 0xd2, 0xff, 0xff, 0x0f, 0x85, 0x48, 
0x41, 0x4d, 0x42, 0xcf, 0xff, 0xff, 0x07, 0x8b, 0x02, 0x00, 0xb5, 0xad, 0x00, 0x00, 0x20, 0xb9, 
0x90, 0xce, 0xf4, 0x26, 0xda, 0x04, 0xc2, 0x3f, 0x3a, 0x3b, 0x07, 0xdf, 0x18, 0xbe, 0xde, 0xd3, 
0xff, 0x77, 0x31, 0x46, 0xe8, 0x6c, 0x2b, 0x04, 0xfe, 0x1f, 0x00, 0x10, 0x0b, 0x00, 0x38, 0x22, 
0x24, 0xae, 0x5c, 0x3d, 0xa7, 0xb2, 0x0a, 0xc0, 0x4f, 0x63, 0x12, 0x25, 0xab, 0x2f, 0xa7, 0xc4, 
0xf6, 0xff, 0x93, 0xff, 0xcf, 0xc3, 0xa7, 0xdf, 0x08, 0xe0, 0xe8, 0x01, 0x95, 0x06, 0x00, 0x74, 
0x42, 0x01, 0x80, 0x94, 0x94, 0x9d, 0xc2, 0xf7, 0x38, 0x54, 0xfd, 0x7f, 0xcb, 0xff, 0x12, 0x1b, 
0x77, 0x68, 0xda, 0xfc, 0x7f, 0x3f, 0x58, 0x41, 0xa3, 0xe4, 0xf8, 0x0f, 0xd8, 0x06, 0x00, 0x4c, 
0x5d, 0x01, 0xc0, 0x1d, 0x43, 0x47, 0xa3, 0x52, 0xd0, 0x32, 0xcd, 0x2d, 0x03, 0x41, 0x44, 0x6a, 
0xba, 0x0c, 0xff, 0x99, 0x73, 0xa3, 0x59, 0x6b, 0xbe, 0xff, 0x4f, 0x37, 0xcc, 0x95, 0x65, 0xc0, 
0xff, 0x0f, 0x00, 0x8b, 0x22, 0x01, 0xa0, 0x69, 0x13, 0x0b, 0x8b, 0x02, 0xcf, 0x92, 0x77, 0xba, 
0x14, 0xc0, 0x53, 0x2d, 0x20, 0xec, 0x50, 0xea, 0x7a, 0xf7, 0xff, 0x98, 0xed, 0x1d, 0x17, 0x85, 
0x39, 0x03, 0xfc, 0x3f, 0x4f, 0x74, 0x07, 0xd6, 0xb5, 0x7b, 0x80, 0xb8, 0x06, 0x00, 0x85, 0x98, 
0x07, 0x40, 0xab, 0xc8, 0xf3, 0xb5, 0xb7, 0x48, 0x3d, 0xeb, 0xfe, 0x3f, 0xb0, 0x2d, 0x52, 0x52, 
0x12, 0xed, 0xff, 0x9f, 0x2b, 0x62, 0xb6, 0xa4, 0xe6, 0x68, 0xff, 0x00, 0x00, 0x94, 0xc4, 0x19, 
0x06, 0x00, 0x65, 0x61, 0x74, 0x40, 0x0d, 0xa1, 0x33, 0x6d, 0xa6, 0xff, 0x82, 0x83, 0x16, 0x7b, 
0xc5, 0x2a, 0x90, 0xff, 0xbf, 0xd7, 0x49, 0x6f, 0x36, 0x1f, 0xc0, 0xff, 0x03, 0xc1, 0x5b, 0x02, 
0x00, 0x05, 0x51, 0xc0, 0xb7, 0x23, 0xfb, 0xfd, 0x20, 0x03, 0x80, 0xe7, 0x0c, 0xb4, 0xf6, 0x48, 
0x71, 0x5b, 0x88, 0x9c, 0xfe, 0x7f, 0xcd, 0xff, 0x6f, 0x9a, 0xf7, 0x36, 0xc3, 0xbc, 0x07, 0x50, 
0x4a, 0x00, 0xc8, 0xdf, 0x01, 0x00, 0x26, 0x17, 0x96, 0x58, 0x1f, 0x51, 0x49, 0xff, 0x56, 0xaf, 
0x7d, 0x04, 0xc8, 0xd6, 0xf9, 0x79, 0xfb, 0xff, 0x76, 0x7a, 0xf2, 0xde, 0xe7, 0xff, 0x23, 0x03, 
0xad, 0xee, 0x7f, 0xa0, 0x6b, 0x01, 0xd4, 0x36, 0x2d, 0x80, 0x6c, 0xd2, 0x76, 0x6d, 0x50, 0xc3, 
0xd3, 0x0b, 0xfe, 0xed, 0x84, 0x15, 0xcb, 0x09, 0xfe, 0x1d, 0xf1, 0xff, 0xb4, 0xff, 0x49, 0x6b, 
0xea, 0xff, 0x9f, 0x52, 0xe8, 0x19, 0x1f, 0x2a, 0x06, 0x00, 0x94, 0x17, 0x00, 0xdc, 0xf7, 0xb9, 
0x35, 0x74, 0x2c, 0xd7, 0x8e, 0xfe, 0x00, 0x5f, 0x13, 0x72, 0x59, 0x99, 0x8d, 0xd7, 0xff, 0x03, 
0xd5, 0x25, 0x9a, 0xbb, 0x79, 0xff, 0x7f, 0x80, 0xb8, 0xb2, 0xd0, 0x43, 0xed, 0xf0, 0x00, 0x7d, 
0x0b, 0x00, 0xf9, 0xff, 0x74, 0x38, 0x30, 0xb6, 0xac, 0x97, 0x00, 0x80, 0xe2, 0x99, 0x15, 0xda, 
0xb0, 0xa0, 0xf9, 0xff, 0x8c, 0x90, 0xe0, 0x36, 0x97, 0x78, 0xef, 0xff, 0x8b, 0x4f, 0xc1, 0xb6, 
0xef, 0x37, 0xf9, 0x0f, 0x00, 0x80, 0x0a, 0x4f, 0x24, 0x00, 0x78, 0x23, 0xef, 0xbd, 0x0b, 0xbc, 
0x8d, 0xa2, 0xf0, 0xbf, 0xc6, 0xf9, 0xe9, 0x60, 0xa3, 0xac, 0xf0, 0xff, 0x04, 0x8a, 0x8a, 0x2f, 
0xce, 0x67, 0xff, 0xff, 0x38, 0x7a, 0x73, 0x1b, 0x3a, 0xb6, 0x0e, 0x20, 0x9e, 0x0b, 0x00, 0x80, 
0x9b, 0x06, 0xf0, 0xd2, 0xd0, 0xc0, 0x2f, 0x08, 0xc2, 0x24, 0xd5, 0x30, 0xfd, 0x3f, 0x12, 0xec, 
0xb7, 0xe5, 0xc0, 0x1d, 0xff, 0x3f, 0xd8, 0x94, 0xae, 0x0b, 0xc4, 0xb8, 0x78, 0x00, 0x00, 0x00, 
0x0c, 0x00, 0x40, 0xea, 0xc9, 0x5f, 0x29, 0x64, 0x8a, 0x19, 0x07, 0x54, 0xff, 0xdf, 0x08, 0xf0, 
0x57, 0x57, 0x80, 0xc3, 0xff, 0xff, 0x07, 0x99, 0x07, 0x00, 0x20, 0x5c, 0x00, 0x41, 0x08, 0xea, 
0xfe, 0x0b, 0x84, 0x66, 0xd1, 0x8c, 0x0c, 0xfe, 0x8d, 0xe0, 0x52, 0x01, 0xab, 0x98, 0xf5, 0xeb, 
0xff, 0x71, 0x2c, 0x2f, 0x2c, 0xb0, 0x9e, 0xfe, 0x7f, 0x00, 0x50, 0x36, 0x34, 0x6a, 0x01, 0x80, 
0x76, 0x64, 0xb0, 0xa4, 0xb0, 0x90, 0x0e, 0x8f, 0x01, 0x1e, 0xab, 0x21, 0x00, 0x2b, 0x52, 0xf1, 
0xc5, 0xfb, 0xff, 0x01, 0x86, 0xbf, 0x5f, 0x85, 0x70, 0xbf, 0xfe, 0xbf, 0x8e, 0xa4, 0x6e, 0xbe, 
0xc9, 0x46, 0xf2, 0x00, 0x00, 0x50, 0x34, 0x72, 0xf0, 0x01, 0x00, 0xe1, 0xd8, 0xaa, 0x47, 0x2f, 
0x73, 0x5e, 0x14, 0xff, 0x7f, 0x44, 0xa1, 0x9a, 0x14, 0xe6, 0x8a, 0xe5, 0xff, 0xff, 0x90, 0x71, 
0x08, 0x69, 0x38, 0xd4, 0xff, 0x00, 0x00, 0x43, 0x06, 0x00, 0x32, 0x56, 0xa2, 0x03, 0x82, 0x75, 
0x01, 0xbb, 0x15, 0xf0, 0x6f, 0x3e, 0x04, 0xe0, 0x1e, 0x35, 0xb3, 0x1d, 0xfe, 0x7f, 0xf4, 0xff, 
0xe0, 0xf4, 0xec, 0xc6, 0x49, 0xdb, 0x00, 0xc0, 0xf2, 0x00, 0x00, 0x71, 0x88, 0x00, 0x1e, 0xc7, 
0x4a, 0xd8, 0x4b, 0x8c, 0x79, 0x11, 0xc2, 0xff, 0x97, 0x25, 0xc3, 0xd3, 0x39, 0xf3, 0xb1, 0xe9, 
0xff, 0xbb, 0xb8, 0x5f, 0x32, 0x1a, 0xd6, 0x84, 0x0f, 0x20, 0xd0, 0x00, 0x20, 0x80, 0x09, 0x00, 
0xe4, 0x12, 0xa4, 0x59, 0x58, 0x25, 0x70, 0xf9, 0xc4, 0xff, 0xcb, 0x15, 0x60, 0x73, 0x7c, 0xad, 
0x77, 0xfd, 0xff, 0xbf, 0x21, 0x34, 0x5a, 0xd4, 0x7b, 0xff, 0x00, 0x00, 0xbe, 0x84, 0x14, 0x23, 
0x00, 0x09, 0x2a, 0xa5, 0x17, 0xd8, 0x15, 0x68, 0xd4, 0x12, 0xfe, 0x2f, 0x92, 0x09, 0x93, 0xcb, 
0x42, 0xb9, 0xf2, 0xff, 0x8b, 0x98, 0xd7, 0x61, 0x8c, 0xfd, 0x3f, 0x04, 0x1c, 0x38, 0x00, 0x84, 
0x53, 0x80, 0x94, 0xfe, 0x88, 0x4f, 0x43, 0x53, 0x01, 0x3c, 0xa2, 0xd4, 0x88, 0x1e, 0xd7, 0x03, 
0xb5, 0xaa, 0xfe, 0xbf, 0xfb, 0xff, 0x38, 0x6e, 0x3a, 0xb9, 0xf5, 0x07, 0x48, 0x74, 0x80, 0x68, 
0xd5, 0xed, 0x5a, 0x9e, 0x75, 0x6e, 0x29, 0x18, 0xe4, 0x00, 0xb0, 0x5c, 0x39, 0x6f, 0x38, 0x36, 
0xa5, 0xff, 0x1f, 0x6b, 0xf5, 0x86, 0x11, 0x26, 0xb7, 0xff, 0x5f, 0x24, 0xe7, 0xac, 0x6c, 0x1d, 
0xff, 0x40, 0x0f, 0x00, 0x10, 0x17, 0x1c, 0x00, 0x40, 0x65, 0xd6, 0x34, 0x84, 0x06, 0x30, 0xd5, 
0x1b, 0xfe, 0xa7, 0xf6, 0xc5, 0x03, 0x62, 0xee, 0x5e, 0xe1, 0xff, 0x9f, 0xdb, 0x5c, 0x6f, 0xce, 
0xf5, 0xff, 0x00, 0x40, 0xaa, 0xee, 0xa3, 0x00, 0x20, 0x01, 0xc4, 0x80, 0x53, 0xb4, 0xa8, 0xb2, 
0x00, 0xe0, 0x31, 0xe7, 0xa2, 0x34, 0xf7, 0x1c, 0x92, 0xce, 0xfa, 0xff, 0xaa, 0x42, 0x34, 0x08, 
0xf4, 0x1e, 0x4f, 0xfc, 0xff, 0x47, 0x29, 0x22, 0x25, 0xdd, 0x1f, 0x60, 0x6b, 0x01, 0x20, 0xd3, 
0xa0, 0x01, 0xa0, 0x7e, 0xe4, 0xa9, 0x21, 0x20, 0x0a, 0xcc, 0xf6, 0xcc, 0xd7, 0x84, 0x6b, 0xf1, 
0xff, 0xab, 0xb8, 0x17, 0x59, 0x06, 0x48, 0xf1, 0xff, 0xff, 0xa0, 0xed, 0x00, 0x60, 0xec, 0x5c, 
0x02, 0x68, 0x7a, 0xb5, 0xa5, 0x03, 0xd9, 0xe0, 0x57, 0xf8, 0x47, 0x33, 0x1c, 0xb9, 0x15, 0xa5, 
0xea, 0x5a, 0xfd, 0xff, 0x39, 0x3f, 0x16, 0xc4, 0xe5, 0x4d, 0xf7, 0xff, 0x6f, 0x35, 0x01, 0x11, 
0xc1, 0x00, 0xf0, 0x7d, 0x40, 0x00, 0xe9, 0x5d, 0x23, 0xa3, 0x94, 0x99, 0x30, 0xeb, 0x8d, 0x00, 
0x5f, 0x06, 0xdf, 0x83, 0x1f, 0x03, 0x83, 0xf2, 0xff, 0xeb, 0xff, 0xd7, 0x57, 0x8f, 0x4c, 0xd0, 
0x66, 0x79, 0x80, 0xaa, 0x03, 0x80, 0x4c, 0x52, 0x10, 0x4f, 0x9c, 0x0e, 0x76, 0xee, 0x02, 0x80, 
0x7c, 0xd3, 0x49, 0xc6, 0xb6, 0xb1, 0x09, 0xa2, 0x83, 0xff, 0x1f, 0xb0, 0x08, 0x57, 0x28, 0x29, 
0x44, 0x9f, 0xff, 0xff, 0x07, 0x87, 0x03, 0x00, 0x5a, 0x70, 0xa0, 0xa0, 0x42, 0xd0, 0xa4, 0x84, 
0xbf, 0x03, 0x9d, 0xc2, 0x3f, 0x5e, 0xf2, 0x1e, 0x82, 0x7b, 0x70, 0xc2, 0xff, 0x8b, 0x42, 0xf8, 
0x2f, 0xf1, 0xf5, 0xff, 0x07, 0x00, 0x31, 0xed, 0xfa, 0x27, 0x00, 0x01, 0x81, 0xe0, 0x60, 0x14, 
0xf8, 0x81, 0x06, 0xe0, 0x11, 0xaa, 0xb5, 0x3d, 0x3a, 0x6a, 0xdc, 0x29, 0xfe, 0x7f, 0x84, 0xc1, 
0xb8, 0xf1, 0xcd, 0x22, 0xaa, 0x58, 0xff, 0x5f, 0x54, 0x9c, 0x2e, 0xab, 0xfc, 0xff, 0x03, 0x00, 
0x40, 0xb7, 0x92, 0xab, 0x50, 0x00, 0x08, 0x80, 0xaf, 0xdf, 0x80, 0x6c, 0x57, 0xfd, 0x7f, 0x56, 
0x0a, 0x0d, 0xf4, 0x20, 0xa1, 0xcc, 0xfa, 0xff, 0xe9, 0xa2, 0x85, 0xde, 0xc0, 0xff, 0x00, 0x10, 
0xb5, 0x1c, 0x00, 0x00, 0xa6, 0x39, 0x05, 0xc1, 0x74, 0xdc, 0x85, 0x0e, 0x56, 0x46, 0x80, 0xff, 
0x46, 0x6b, 0x81, 0xd1, 0x2e, 0x94, 0xff, 0xff, 0x21, 0xd6, 0x95, 0xa1, 0x40, 0xfa, 0xff, 0x01, 
0x40, 0x0d, 0x00, 0xe0, 0x20, 0x06, 0x3e, 0x9c, 0x3a, 0xf2, 0xb4, 0x12, 0xe0, 0x25, 0x85, 0x61, 
0xc8, 0x8f, 0xcf, 0x38, 0x12, 0x2a, 0xfe, 0x5f, 0xff, 0x5f, 0xc2, 0xa1, 0x63, 0xac, 0x05, 0x45, 
0x78, 0x00, 0x29, 0x03, 0x80, 0xb8, 0x76, 0x00, 0x00, 0x44, 0xc4, 0xc3, 0x4b, 0x14, 0x47, 0xac, 
0x2b, 0xfd, 0x7f, 0xc7, 0xdc, 0xc0, 0x74, 0xc5, 0xb7, 0xc3, 0xfe, 0xff, 0xd6, 0x72, 0xbe, 0xbc, 
0xe6, 0x7f, 0xb4, 0x37, 0x00, 0x10, 0xad, 0x06, 0x00, 0x08, 0xe0, 0x79, 0xe1, 0x22, 0x00, 0x3e, 
0xcb, 0xe0, 0xbf, 0xc7, 0xb2, 0x75, 0x30, 0xbe, 0xa1, 0x5b, 0x74, 0xe8, 0xff, 0xc7, 0x49, 0xfe, 
0xd7, 0x7a, 0xf9, 0xff, 0x9f, 0x2b, 0xc1, 0x54, 0x79, 0x09, 0x00, 0x7e, 0x01, 0x00, 0xe8, 0xdc, 
0xd7, 0x2a, 0x0e, 0x57, 0x42, 0x63, 0x4a, 0x4f, 0x05, 0xe0, 0x59, 0x78, 0x5a, 0xeb, 0x25, 0x05, 
0xdc, 0xff, 0x47, 0xf9, 0x6f, 0xbe, 0x37, 0x4a, 0xf8, 0xff, 0xca, 0x53, 0x82, 0xa0, 0x15, 0x2f, 
0xc0, 0x03, 0x00, 0x40, 0x99, 0x2e, 0x48, 0x07, 0x00, 0xf5, 0xac, 0xe1, 0x49, 0x55, 0xb9, 0x4c, 
0xe9, 0xff, 0x6b, 0x6c, 0xd8, 0x8b, 0xee, 0x5f, 0xef, 0xff, 0x73, 0x9b, 0xb0, 0xd9, 0x8f, 0xe4, 
0x3f, 0x02, 0x80, 0x69, 0xd6, 0x6c, 0x08, 0x00, 0x90, 0x08, 0x82, 0xac, 0x85, 0x53, 0x58, 0xe1, 
0x1f, 0x00, 0x91, 0xbf, 0x7b, 0xc9, 0x89, 0x5d, 0xff, 0xbf, 0x14, 0x7a, 0x4c, 0x4e, 0x14, 0x53, 
0xad, 0xff, 0x9f, 0x40, 0xd5, 0x08, 0x10, 0x82, 0x50, 0x03, 0x3c, 0x59, 0x0f, 0x64, 0x70, 0xa5, 
0x92, 0x60, 0x50, 0xed, 0xff, 0x83, 0xc2, 0xdd, 0xcd, 0x6d, 0x9a, 0x75, 0xd8, 0xff, 0x47, 0x4e, 
0x18, 0xe2, 0x35, 0x72, 0xa4, 0x7d, 0x10, 0x00, 0x38, 0x1a, 0x00, 0xa8, 0xe1, 0x92, 0x67, 0x88, 
0x34, 0xf4, 0xc2, 0x69, 0x41, 0xfe, 0xbf, 0xe8, 0x72, 0x58, 0x89, 0xb9, 0x81, 0xff, 0x5f, 0x13, 
0x78, 0xa9, 0x2c, 0xfd, 0xf3, 0xfc, 0x03, 0x00, 0x14, 0x16, 0x00, 0x44, 0x7b, 0x02, 0x02, 0xeb, 
0xe9, 0xa8, 0xb3, 0x35, 0x01, 0xff, 0x9a, 0x2c, 0xe3, 0x40, 0x6e, 0xfc, 0xec, 0x6c, 0xf8, 0x7f, 
0xf0, 0xff, 0x23, 0xe6, 0x31, 0x9c, 0x2d, 0x04, 0xb3, 0x09, 0x00, 0x25, 0x0a, 0x00, 0x1d, 0x4e, 
0x01, 0x9e, 0x96, 0x39, 0x31, 0x57, 0xc6, 0x6a, 0xfc, 0xff, 0x33, 0xc1, 0x98, 0x2e, 0xad, 0x6c, 
0x91, 0xfa, 0x7f, 0xd0, 0xe1, 0x6b, 0xac, 0x86, 0xf1, 0x00, 0x00, 0x04, 0x08, 0xa8, 0x14, 0x00, 
0xce, 0xc5, 0xb7, 0xac, 0x38, 0x2b, 0xb6, 0xa0, 0x7a, 0xf0, 0xff, 0x43, 0xb3, 0x13, 0x0b, 0xeb, 
0xe7, 0xf7, 0xff, 0x93, 0x0a, 0x81, 0x14, 0x17, 0xe8, 0x2c, 0xff, 0x00, 0x00, 0x1c, 0x08, 0x00, 
0x80, 0xaa, 0x60, 0xdc, 0xc2, 0xc8, 0x8d, 0xf3, 0xc9, 0x94, 0xd3, 0x1a, 0xfe, 0x05, 0x04, 0x7a, 
0xe8, 0x0c, 0x72, 0xe4, 0xff, 0x95, 0xff, 0x48, 0x8d, 0x8e, 0x95, 0x91, 0xff, 0x0f, 0x00, 0x5d, 
0x26, 0x00, 0xc0, 0xea, 0x42, 0xf8, 0x48, 0xae, 0x9c, 0x09, 0x3f, 0x49, 0x12, 0xcf, 0x48, 0xff, 
0x1f, 0x5c, 0x91, 0x64, 0x65, 0x4c, 0xc9, 0xf8, 0xff, 0x46, 0x20, 0x29, 0x26, 0x25, 0x83, 0x1c, 
0xf2, 0x00, 0x00, 0x90, 0xfe, 0x51, 0xdf, 0x28, 0x00, 0x52, 0x06, 0xf2, 0xe3, 0x5c, 0x39, 0x88, 
0xfe, 0xff, 0x61, 0xac, 0xa0, 0x06, 0xc7, 0xa7, 0xff, 0x3f, 0x33, 0x99, 0xfb, 0xd4, 0x4f, 0x20, 
0xf0, 0x1f, 0x00, 0xa0, 0x12, 0x03, 0x00, 0x84, 0x73, 0xc5, 0x03, 0x65, 0xf1, 0x32, 0xe5, 0x59, 
0x21, 0xbd, 0xf0, 0x2f, 0x58, 0x07, 0x8a, 0x94, 0x76, 0x87, 0xee, 0xff, 0x1f, 0xdb, 0x5e, 0xb1, 
0x08, 0xf1, 0xcb, 0xff, 0x0f, 0x00, 0x68, 0x03, 0x80, 0x94, 0x54, 0x00, 0x9e, 0xa5, 0x04, 0x26, 
0x21, 0xc1, 0x59, 0x3b, 0x89, 0xff, 0x87, 0xbf, 0x15, 0xff, 0x66, 0x11, 0x44, 0xff, 0xbf, 0x32, 
0x06, 0x71, 0x74, 0x68, 0x28, 0xe0, 0x01, 0x84, 0x09, 0x00, 0x30, 0x05, 0x01, 0xe4, 0xf4, 0xf0, 
0xa8, 0x15, 0xd4, 0x36, 0xfc, 0x9d, 0xf1, 0xff, 0x42, 0xec, 0x21, 0x25, 0x53, 0x66, 0xfb, 0xff, 
0xd1, 0x04, 0xce, 0xa9, 0x54, 0x6d, 0xd0, 0x3f, 0x00, 0x00, 0x50, 0x0c, 0x00, 0xad, 0xa8, 0x1f, 
0x14, 0x73, 0x95, 0x68, 0x6a, 0x27, 0x90, 0xf0, 0x0f, 0x1a, 0x5a, 0x71, 0x27, 0xee, 0xff, 0x8f, 
0x40, 0x0c, 0x09, 0xa3, 0x9b, 0x48, 0xc3, 0xff, 0x27, 0x01, 0x33, 0x00, 0x00, 0x58, 0x6c, 0x80, 
0xa7, 0x35, 0x9b, 0xfb, 0xbb, 0x9b, 0x19, 0x10, 0x08, 0x2c, 0xfd, 0x3f, 0x22, 0x2c, 0x89, 0x77, 
0x9e, 0x81, 0xff, 0xf7, 0x91, 0x5d, 0xf6, 0x15, 0x13, 0xe3, 0x3e, 0x00, 0x28, 0x01, 0x00, 0x4f, 
0x11, 0x00, 0xa8, 0x1f, 0x05, 0xe7, 0x4b, 0x09, 0x1b, 0xea, 0x39, 0xff, 0x3f, 0xe1, 0x78, 0xf9, 
0x23, 0x8b, 0x18, 0x38, 0xff, 0xaf, 0xb0, 0x26, 0x26, 0x2f, 0xfb, 0xec, 0x3f, 0x00, 0x00, 0x85, 
0x2d, 0x35, 0x02, 0x00, 0x48, 0x9c, 0x1c, 0x48, 0xcc, 0x43, 0xea, 0x03, 0xff, 0x42, 0x3d, 0x3d, 
0xf2, 0x28, 0x6d, 0xa5, 0x50, 0xf8, 0xff, 0x0c, 0x97, 0x92, 0x0a, 0xc7, 0x50, 0xfe, 0x1f, 0x00, 
0x32, 0x1d, 0x00, 0x52, 0x28, 0x09, 0x84, 0xa0, 0x0c, 0xe6, 0xe8, 0x0f, 0xe0, 0xa9, 0x18, 0x5a, 
0x34, 0xcc, 0x96, 0x1c, 0xae, 0xda, 0xfe, 0x1f, 0xf2, 0xff, 0x44, 0x98, 0xdd, 0x02, 0x0d, 0x84, 
0xed, 0x07, 0x68, 0x46, 0x00, 0x80, 0x69, 0x1e, 0x00, 0x80, 0x1e, 0x04, 0x71, 0x3f, 0x6c, 0x49, 
0x50, 0xd1, 0xff, 0xcb, 0x27, 0x70, 0x56, 0x09, 0x9d, 0xe2, 0xfc, 0xff, 0x4d, 0xb8, 0xf0, 0x8c, 
0x74, 0x8e, 0x60, 0xff, 0x08, 0x0c, 0x6a, 0x9d, 0x4b, 0x1b, 0x00, 0x00, 0xf8, 0x1e, 0xc5, 0x7a, 
0xb6, 0x7c, 0x10, 0xfe, 0xc1, 0x42, 0x33, 0xfa, 0x7e, 0x0c, 0xcf, 0xcb, 0xfb, 0xff, 0x5c, 0xe0, 
0x96, 0x70, 0x04, 0x1c, 0xeb, 0xff, 0x03, 0x00, 0xa1, 0x00, 0x00, 0x68, 0x12, 0xe0, 0x8b, 0x53, 
0xdd, 0x1d, 0x92, 0x78, 0x68, 0xba, 0x3d, 0xf2, 0xff, 0x03, 0x31, 0x8a, 0xe7, 0x34, 0xf5, 0x36, 
0xfb, 0x7f, 0x82, 0x44, 0x5b, 0x00, 0x7a, 0x2c, 0xcd, 0x03, 0x20, 0x0b, 0x00, 0x90, 0xaa, 0x00, 
0x00, 0x55, 0xd7, 0x05, 0xfb, 0xa3, 0x68, 0xe0, 0x0c, 0xef, 0xff, 0x83, 0xb6, 0x1b, 0x51, 0x76, 
0xa0, 0x06, 0xf9, 0xff, 0x7c, 0x57, 0x71, 0x30, 0x5e, 0x13, 0xca, 0x3f, 0x00, 0x40, 0x91, 0x07, 
0x00, 0x90, 0x3b, 0xd0, 0x51, 0x5d, 0x7d, 0x8f, 0x8c, 0xd5, 0x02, 0xfe, 0xd5, 0x88, 0xa6, 0xd8, 
0xd0, 0x21, 0x9a, 0xa2, 0xff, 0x77, 0xff, 0x9f, 0xc6, 0x7f, 0xcb, 0xe0, 0x78, 0x00, 0x20, 0x15, 
0x01, 0x00, 0xa4, 0x2a, 0xc0, 0x73, 0xd3, 0xc0, 0xe7, 0x50, 0x53, 0x47, 0x1a, 0xa9, 0x3d, 0xff, 
0x0f, 0x44, 0x1a, 0xa6, 0x43, 0x54, 0x4b, 0xff, 0x2f, 0x4f, 0x0b, 0xbb, 0xb5, 0x6c, 0xe3, 0x7a, 
0x80, 0xf9, 0x01, 0x00, 0x00, 0xbd, 0x03, 0x80, 0x80, 0xca, 0x24, 0x20, 0x47, 0x6b, 0x5a, 0x32, 
0x85, 0xe8, 0xff, 0x3f, 0x1c, 0xe5, 0x09, 0x3e, 0x86, 0x21, 0xea, 0xff, 0x07, 0x5c, 0xf4, 0x60, 
0x74, 0xa5, 0x7f, 0x00, 0x00, 0x98, 0x36, 0xd3, 0x01, 0x00, 0x46, 0xd3, 0x9a, 0xa1, 0xf3, 0x9b, 
0x45, 0x33, 0x0a, 0xff, 0x40, 0x48, 0x93, 0x7a, 0xac, 0xe4, 0xca, 0xff, 0xcf, 0x54, 0x43, 0x63, 
0xa9, 0xee, 0x23, 0x82, 0xff, 0x0f, 0x00, 0x9a, 0x05, 0x80, 0x00, 0xcf, 0x00, 0x3c, 0x40, 0xb2, 
0x1a, 0xf3, 0x84, 0x77, 0x63, 0x0d, 0x33, 0xfc, 0xff, 0x41, 0x77, 0xb3, 0xc5, 0x68, 0x85, 0x09, 
0xd5, 0xff, 0x7f, 0xc9, 0xdc, 0xc4, 0xda, 0xe0, 0x08, 0xee, 0x01, 0x00, 0xa0, 0x64, 0xa9, 0x8b, 
0x03, 0x00, 0x26, 0x98, 0x93, 0x3d, 0xcc, 0x44, 0x2f, 0x28, 0xf0, 0xff, 0xef, 0xf0, 0x56, 0x43, 
0xa1, 0xec, 0xff, 0x1f, 0xb5, 0x2b, 0xab, 0x8f, 0x7e, 0xfe, 0x1f, 0x00, 0x80, 0x9a, 0x13, 0x00, 
0xd0, 0xb5, 0xac, 0x1a, 0xdb, 0x17, 0x42, 0xb5, 0xc4, 0x64, 0x85, 0xff, 0x2a, 0x08, 0xe4, 0x78, 
0xc4, 0xbf, 0xcc, 0xff, 0x8f, 0x6c, 0xe0, 0xda, 0x22, 0xf1, 0xff, 0x0f, 0x00, 0x96, 0x65, 0x01, 
0x80, 0x78, 0x6f, 0x2d, 0x1b, 0x23, 0xbb, 0x5c, 0x81, 0x54, 0x02, 0xf8, 0xdc, 0x6f, 0x71, 0x8c, 
0x44, 0xc1, 0x13, 0xfa, 0x7f, 0x1b, 0x94, 0x55, 0x7f, 0xa1, 0xf6, 0xff, 0x0f, 0x30, 0xb3, 0x00, 
0x80, 0xda, 0x44, 0x85, 0xad, 0xc5, 0x23, 0x84, 0xd7, 0x44, 0x00, 0xe8, 0x4d, 0x24, 0xbc, 0x4d, 
0x39, 0x49, 0xb4, 0x11, 0xc2, 0xff, 0x7f, 0x50, 0xfc, 0xae, 0x62, 0xdb, 0x69, 0x36, 0xf1, 0xff, 
0x66, 0x16, 0x50, 0xf5, 0xb0, 0x4d, 0xc2, 0x7f, 0x00, 0x00, 0x25, 0x85, 0x00, 0x62, 0x5b, 0xf1, 
0x0f, 0x06, 0x4a, 0xd5, 0x37, 0xa9, 0x58, 0xc2, 0xff, 0xff, 0x25, 0xdf, 0xa6, 0x5e, 0x7b, 0x08, 
0xff, 0x0f, 0x00, 0xcb, 0xa7, 0xa8, 0x25, 0x00, 0x90, 0xb0, 0x30, 0x43, 0xed, 0x01, 0x17, 0x9c, 
0x00, 0x3c, 0xc5, 0x13, 0xaa, 0x30, 0x31, 0x45, 0x45, 0x99, 0xff, 0x3f, 0xe6, 0xb8, 0x2a, 0x8d, 
0x26, 0x3f, 0xa0, 0xff, 0x5f, 0x3b, 0x71, 0x9b, 0x61, 0x7f, 0xf5, 0x03, 0x00, 0x40, 0x0d, 0x8c, 
0x1c, 0x04, 0x00, 0x11, 0x02, 0x54, 0x7f, 0x59, 0x0f, 0x98, 0xa2, 0xff, 0x8f, 0xb6, 0xed, 0xfc, 
0x8c, 0x27, 0xed, 0x0e, 0xff, 0xef, 0x63, 0x44, 0x23, 0xcc, 0xbd, 0x38, 0xfd, 0x07, 0x40, 0x48, 
0x65, 0x00, 0xd8, 0x0c, 0xcd, 0x21, 0x0e, 0x31, 0x2b, 0x2f, 0xc0, 0x7f, 0x71, 0x27, 0x74, 0x90, 
0xc2, 0x20, 0xa4, 0xff, 0xff, 0xff, 0x37, 0x1c, 0x8a, 0x52, 0xb8, 0x03, 0x00, 0xa8, 0x48, 0x00, 
0x18, 0xfa, 0x1f, 0x80, 0x9e, 0x03, 0x37, 0x52, 0x28, 0x94, 0x00, 0x9f, 0x90, 0xca, 0x61, 0x4d, 
0x92, 0xe6, 0xb5, 0xcc, 0xff, 0xa7, 0xfe, 0x1f, 0x4f, 0x88, 0x16, 0x37, 0xce, 0xba, 0x07, 0x2c, 
0x4c, 0x00, 0x59, 0xbe, 0x0b, 0x00, 0x14, 0x28, 0xcc, 0x12, 0xc8, 0x95, 0xae, 0x05, 0xfc, 0xbf, 
0x58, 0x2c, 0x67, 0x83, 0x0b, 0x5f, 0xfc, 0xff, 0xfe, 0x7e, 0x0b, 0xab, 0x1e, 0xe0, 0xf4, 0x3f, 
0x00, 0xc0, 0xd1, 0x34, 0xd5, 0x02, 0x00, 0x04, 0xf1, 0xf2, 0x8c, 0xdc, 0x7c, 0x62, 0x63, 0xf8, 
0x17, 0xc9, 0x76, 0x92, 0x84, 0x22, 0x76, 0x4a, 0xff, 0x4f, 0x44, 0x69, 0x7d, 0x0c, 0x8f, 0xc0, 
0xff, 0x03, 0x80, 0xbb, 0xb2, 0x6a, 0x29, 0x00, 0x48, 0xc2, 0x19, 0x40, 0x5c, 0xfa, 0x85, 0x0c, 
0xf2, 0xa3, 0x87, 0xda, 0xdb, 0x32, 0x5c, 0x21, 0x53, 0xfa, 0x7f, 0xa5, 0xa4, 0xb9, 0xd0, 0xb4, 
0xe6, 0xd4, 0xff, 0x23, 0x05, 0x79, 0x71, 0x4a, 0xf5, 0xf6, 0x00, 0x82, 0x70, 0xa9, 0x78, 0xb4, 
0x00, 0x80, 0x58, 0xa6, 0xa3, 0xa4, 0x76, 0xec, 0xe2, 0xff, 0x47, 0x2e, 0x3e, 0x07, 0xde, 0x3c, 
0x73, 0x40, 0xff, 0x3f, 0x27, 0xc0, 0xa9, 0x09, 0x94, 0xb3, 0x7f, 0x00, 0x80, 0x35, 0x0a, 0x00, 
0x83, 0x34, 0xf7, 0x8a, 0x2d, 0x8d, 0xcb, 0x35, 0x46, 0x44, 0x05, 0xff, 0xfa, 0x5c, 0x85, 0x4f, 
0x80, 0xf1, 0xff, 0x22, 0x95, 0x8d, 0xbe, 0xc6, 0x47, 0xfc, 0x3f, 0x00, 0xbc, 0x07, 0x00, 0x08, 
0x28, 0x03, 0xc0, 0x8f, 0x01, 0x48, 0x37, 0x12, 0x1a, 0x7a, 0xbc, 0x59, 0xff, 0x9f, 0x74, 0x6a, 
0x55, 0xf5, 0x31, 0x7d, 0xf0, 0xff, 0xbf, 0x5c, 0x85, 0x18, 0xd4, 0x29, 0xf6, 0x00, 0xad, 0x25, 
0x00, 0x18, 0xd7, 0x00, 0x80, 0x20, 0xa1, 0x76, 0x7e, 0xdb, 0xe6, 0xcc, 0xd2, 0xf8, 0x7f, 0x50, 
0xc3, 0xba, 0xe8, 0x96, 0x1a, 0x18, 0xfc, 0x7f, 0x60, 0xe8, 0x2a, 0xb3, 0xb6, 0x1b, 0x0f, 0xfe, 
0x07, 0x04, 0xd0, 0x06, 0x08, 0x00, 0x32, 0x5a, 0xf6, 0xf5, 0x3e, 0x6e, 0x5c, 0x43, 0x03, 0xf0, 
0x9f, 0xfb, 0xd9, 0x0c, 0x5b, 0x8f, 0xb8, 0x9f, 0xe0, 0xf5, 0xff, 0xf8, 0xff, 0x4d, 0x4c, 0x75, 
0x6e, 0x02, 0xc3, 0x00, 0x00, 0x87, 0x04, 0x04, 0xf0, 0xb0, 0x00, 0x0f, 0x2a, 0x4d, 0x36, 0x1b, 
0x22, 0x9e, 0xe7, 0xe9, 0xff, 0x47, 0xb3, 0x98, 0xe4, 0x5d, 0x8f, 0xa3, 0xfc, 0xff, 0x03, 0x44, 
0x0c, 0x00, 0x44, 0x51, 0x8a, 0xf1, 0x4e, 0xf4, 0xea, 0xee, 0xb9, 0x3c, 0x00, 0x1c, 0x57, 0x7a, 
0x8d, 0x71, 0xfb, 0x9c, 0x60, 0x91, 0xfe, 0xbf, 0x54, 0x08, 0xdc, 0x4d, 0x63, 0x09, 0xf8, 0xff, 
0xff, 0x10, 0xdb, 0x00, 0x10, 0xe0, 0x03, 0x00, 0x00, 0x80, 0x74, 0x44, 0x03, 0xbd, 0x34, 0x92, 
0xe5, 0x82, 0x7f, 0x20, 0x59, 0xb9, 0x3a, 0x9b, 0xb5, 0xb1, 0xc3, 0xfe, 0x7f, 0x65, 0x1d, 0x5e, 
0xeb, 0x42, 0x32, 0xe0, 0xff, 0x01, 0x80, 0x3a, 0x00, 0x00, 0xf4, 0xbb, 0x32, 0x2c, 0x6e, 0xbd, 
0xb4, 0x41, 0x50, 0x08, 0xe0, 0x2f, 0x12, 0x1a, 0xc5, 0x54, 0xf3, 0x77, 0x79, 0xf1, 0xff, 0xe1, 
0xff, 0x27, 0x16, 0xd9, 0x4c, 0x72, 0x6c, 0xf3, 0x00, 0x4c, 0x04, 0x00, 0x74, 0x30, 0x00, 0x40, 
0x57, 0x9c, 0x4a, 0xa3, 0x25, 0xc1, 0x25, 0x9b, 0xfc, 0xff, 0xc8, 0x72, 0x6c, 0x39, 0x91, 0xa5, 
0xa7, 0xff, 0x7f, 0x02, 0x8b, 0x62, 0x8d, 0xec, 0x8c, 0x7f, 0x80, 0x00, 0x00, 0xf8, 0x19, 0x00, 
0x50, 0xad, 0x8b, 0x16, 0x53, 0x5a, 0x82, 0x21, 0x4f, 0x0c, 0xfc, 0xdb, 0x51, 0x66, 0x0e, 0xb7, 
0xde, 0x90, 0xfa, 0x7f, 0x93, 0x80, 0x0c, 0x13, 0xe3, 0x43, 0xff, 0xff, 0xac, 0xd1, 0x3c, 0x8c, 
0x3a, 0x06, 0x00, 0x34, 0x15, 0x00, 0x94, 0x39, 0x04, 0xf0, 0x81, 0x42, 0x36, 0xdc, 0xf5, 0x64, 
0xcc, 0xf9, 0xff, 0x4b, 0x94, 0xf1, 0x5e, 0xcf, 0x76, 0xbd, 0xd7, 0xfe, 0xbf, 0x2d, 0x99, 0x74, 
0x80, 0x13, 0xab, 0x07, 0x00, 0x58, 0x00, 0x30, 0x5a, 0x41, 0xc0, 0x38, 0xb8, 0x85, 0x1e, 0x59, 
0x91, 0x44, 0x48, 0xff, 0xff, 0x99, 0x11, 0x35, 0xb8, 0x8f, 0xa2, 0xfa, 0x7f, 0x5d, 0xe0, 0x1b, 
0x44, 0xd6, 0x7f, 0x00, 0x00, 0x51, 0x06, 0x40, 0x90, 0xb0, 0xf7, 0x18, 0x64, 0x2a, 0x5b, 0x5e, 
0xd1, 0x18, 0x21, 0x37, 0xfe, 0x41, 0x6c, 0x13, 0xc4, 0x1e, 0x82, 0xf1, 0xff, 0x5f, 0xb1, 0xf3, 
0x60, 0x1e, 0xf2, 0x6b, 0x1e, 0xff, 0x0f, 0x10, 0xd3, 0x05, 0x00, 0x6a, 0x19, 0x21, 0xf8, 0x25, 
0x74, 0x39, 0x46, 0x5c, 0x0c, 0xeb, 0xff, 0x67, 0xe4, 0x07, 0x6f, 0x08, 0x12, 0xf8, 0xff, 0xc3, 
0x96, 0x95, 0x2c, 0x86, 0xa9, 0xf9, 0x00, 0x13, 0x03, 0x00, 0x06, 0x25, 0x00, 0x20, 0x82, 0x52, 
0xb1, 0xf6, 0xab, 0xd7, 0x9e, 0xe6, 0xff, 0x83, 0x2e, 0x19, 0x25, 0x12, 0x61, 0x87, 0xa2, 0xff, 
0xff, 0xcf, 0x15, 0x62, 0xea, 0x70, 0x88, 0xfb, 0x07, 0x00, 0xb8, 0xd8, 0x50, 0xa0, 0x00, 0x80, 
0x81, 0x62, 0x84, 0xd8, 0x72, 0x56, 0x9b, 0x06, 0xf8, 0x17, 0x48, 0xf7, 0x83, 0x37, 0xbb, 0x09, 
0xfc, 0x7f, 0x8d, 0xf8, 0x8f, 0xd6, 0x62, 0x68, 0xfe, 0xff, 0x01, 0xb0, 0x8a, 0x01, 0x60, 0x0a, 
0x9a, 0xd0, 0xd4, 0x3f, 0x37, 0x3f, 0x9d, 0x00, 0xdf, 0x96, 0x14, 0xdf, 0x7a, 0xa6, 0x56, 0xe7, 
0xab, 0xff, 0x07, 0xff, 0x3f, 0x7f, 0xd0, 0xb9, 0x9e, 0x86, 0xe7, 0x0f, 0x40, 0x0e, 0x00, 0x10, 
0x9d, 0x02, 0x00, 0x99, 0x25, 0x10, 0xd8, 0x0b, 0xa2, 0x5a, 0xb3, 0xd0, 0x87, 0x78, 0xd7, 0x65, 
0x85, 0x6e, 0xf9, 0xff, 0x70, 0xe4, 0x3d, 0x18, 0x4d, 0x47, 0xfc, 0xff, 0x3f, 0xf4, 0x04, 0x00, 
0xd4, 0x06, 0x05, 0x00, 0xa0, 0x34, 0xc2, 0x43, 0xf1, 0xce, 0x60, 0xf0, 0x0f, 0x39, 0xf4, 0x4a, 
0xd1, 0x5b, 0xc5, 0x36, 0xf3, 0xff, 0x83, 0x2d, 0xed, 0x70, 0x2f, 0xb8, 0x98, 0xfb, 0xff, 0x00, 
0x10, 0x36, 0x04, 0x00, 0x08, 0x6c, 0xbf, 0x20, 0xb5, 0x9b, 0xe3, 0xb5, 0x81, 0x14, 0x1a, 0xc0, 
0xd3, 0x5c, 0xaa, 0x9d, 0xaf, 0x9b, 0x1b, 0xfb, 0xff, 0x7f, 0x7e, 0x72, 0xa1, 0x87, 0x35, 0xf4, 
0xff, 0x0f, 0x70, 0x4f, 0x00, 0x20, 0x7c, 0x33, 0x41, 0x6c, 0x5a, 0x52, 0xc7, 0xed, 0x0b, 0x00, 
0xed, 0xa8, 0x87, 0xa0, 0x9c, 0x01, 0x23, 0x6a, 0xa1, 0xf5, 0xff, 0xb7, 0x5c, 0xb0, 0x32, 0x2f, 
0xb0, 0xa2, 0xfe, 0x3f, 0xe6, 0xc3, 0x59, 0x49, 0xc5, 0x3f, 0x04, 0x40, 0xc2, 0x5b, 0x00, 0xc0, 
0x30, 0x5b, 0x1b, 0x95, 0xbb, 0x24, 0x18, 0xe0, 0xff, 0xbc, 0x1d, 0x2e, 0xdf, 0xfa, 0x8e, 0x59, 
0x16, 0xef, 0xff, 0x01, 0xff, 0xbf, 0x48, 0x43, 0x25, 0xb0, 0xbd, 0xe8, 0xd3, 0x00, 0x70, 0xe8, 
0x00, 0x00, 0x30, 0x54, 0x80, 0x67, 0x2e, 0xbb, 0x06, 0xb0, 0x6a, 0xa4, 0xa7, 0x9b, 0x90, 0xff, 
0x0f, 0x62, 0x4d, 0x96, 0x87, 0x04, 0xa3, 0xfd, 0x7f, 0x49, 0xfe, 0xae, 0x31, 0x2f, 0x73, 0x34, 
0x3e, 0x00, 0x00, 0xd0, 0xdc, 0x00, 0x00, 0x35, 0x09, 0x26, 0x57, 0x8f, 0xdf, 0x31, 0x4a, 0x3b, 
0xfd, 0xff, 0x33, 0xe0, 0xdf, 0x79, 0xa9, 0xed, 0xcc, 0xff, 0x0f, 0xca, 0xc9, 0x35, 0xcb, 0x84, 
0xfc, 0x1f, 0x00, 0x40, 0xf7, 0x80, 0x00, 0xe0, 0x07, 0xc5, 0xf6, 0x32, 0x45, 0x10, 0x7f, 0x2d, 
0xd9, 0xee, 0x87, 0xff, 0x4d, 0x89, 0xbd, 0x73, 0x8a, 0x20, 0xff, 0x3f, 0x84, 0x76, 0x56, 0xf8, 
0x7f, 0x00, 0xa8, 0x66, 0x09, 0x2a, 0x0b, 0x80, 0x65, 0x84, 0xf0, 0x4f, 0xd6, 0x91, 0x97, 0x43, 
0x01, 0x9e, 0x95, 0x55, 0x4b, 0x2e, 0xa1, 0x41, 0x89, 0xfa, 0xff, 0xb7, 0x12, 0x90, 0x76, 0x1a, 
0x9d, 0xe3, 0xff, 0x43, 0x46, 0x50, 0x04, 0x09, 0x1e, 0x00, 0xf2, 0x00, 0x20, 0xbd, 0x26, 0x00, 
0x28, 0x30, 0x12, 0x66, 0xbb, 0xf8, 0x7c, 0x51, 0xe0, 0xff, 0x3f, 0xcb, 0x48, 0xa7, 0x0a, 0x83, 
0x5e, 0xfe, 0xff, 0xbd, 0x73, 0xda, 0x11, 0x18, 0xf5, 0x0f, 0x0a, 0x05, 0x00, 0x44, 0xf1, 0x00, 
0x70, 0x8d, 0x80, 0x78, 0x1e, 0x11, 0x22, 0xd8, 0xf6, 0x0a, 0xfe, 0xd1, 0x45, 0x71, 0x96, 0xe2, 
0x16, 0xda, 0xf0, 0xff, 0xa7, 0x51, 0x7a, 0x9d, 0xf9, 0xf6, 0xff, 0xef, 0x45, 0x17, 0xe8, 0xa8, 
0x5b, 0x00, 0xf0, 0xc1, 0x00, 0x20, 0x71, 0x12, 0x80, 0xa7, 0x50, 0xe6, 0x25, 0xb1, 0xc6, 0x2c, 
0xeb, 0xe7, 0xff, 0x2f, 0x24, 0x00, 0xad, 0xae, 0x06, 0x7f, 0xf9, 0xff, 0xbd, 0x97, 0x50, 0xfc, 
0xff, 0xec, 0x01, 0x6a, 0x1d, 0x00, 0x22, 0x29, 0x0b, 0x00, 0xf2, 0x11, 0xa7, 0x08, 0xad, 0xbc, 
0xe6, 0x19, 0x85, 0x39, 0xb8, 0x5e, 0xb9, 0x21, 0xfc, 0x7f, 0xed, 0x6d, 0xc5, 0x38, 0x03, 0x18, 
0xff, 0xff, 0x0f, 0xb3, 0x0a, 0x00, 0x75, 0x39, 0xac, 0xa3, 0xe5, 0xc0, 0x98, 0x02, 0x01, 0xc6, 
0xa6, 0x44, 0xfc, 0x85, 0x83, 0x7d, 0xc8, 0xcf, 0x82, 0xff, 0xca, 0xb6, 0xae, 0x8a, 0xf4, 0x96, 
0xb4, 0xfe, 0x7f, 0x8d, 0x6c, 0x8a, 0x49, 0xe1, 0xff, 0x01, 0x60, 0xeb, 0x2c, 0x2b, 0x16, 0x00, 
0x66, 0x6f, 0xd0, 0xb1, 0x1e, 0xb9, 0x61, 0x47, 0x78, 0xa5, 0x73, 0xdc, 0x5c, 0x75, 0x32, 0x15, 
0xfc, 0xff, 0x4f, 0x82, 0x69, 0x96, 0x08, 0xd7, 0xff, 0x1f, 0xd5, 0x9c, 0xc4, 0xf7, 0x8f, 0x07, 
0x68, 0x51, 0x00, 0x20, 0x54, 0x0f, 0x00, 0x42, 0x6c, 0x76, 0x72, 0x98, 0xeb, 0x1c, 0x07, 0x43, 
0xf9, 0xff, 0xf6, 0x2f, 0x99, 0xd1, 0x6f, 0x4b, 0xef, 0xff, 0x63, 0x49, 0x3b, 0x7b, 0x8d, 0xfd, 
0x3f, 0x00, 0xc0, 0xe0, 0x25, 0x59, 0x08, 0x00, 0x01, 0x61, 0x6f, 0x57, 0x4b, 0x6f, 0x0b, 0x16, 
0x86, 0x7f, 0x73, 0xed, 0x23, 0x44, 0x4a, 0x59, 0x38, 0xf9, 0xff, 0xd4, 0xfe, 0x8b, 0x71, 0x23, 
0x49, 0xfe, 0x1f, 0x00, 0x5c, 0x33, 0x09, 0x00, 0x8a, 0x00, 0x27, 0xf2, 0x41, 0x8f, 0x61, 0x13, 
0x41, 0x00, 0x7c, 0xe7, 0x6f, 0xda, 0xe4, 0xaa, 0x28, 0xfd, 0xff, 0x09, 0x53, 0x82, 0x67, 0x9f, 
0xd3, 0xef, 0xff, 0x1f, 0x88, 0x24, 0x05, 0xe4, 0x55, 0x15, 0x00, 0x7e, 0xd0, 0x94, 0x26, 0xb6, 
0x68, 0xda, 0x4d, 0xfd, 0x11, 0xdb, 0x9d, 0x4b, 0xf7, 0xff, 0x8e, 0x53, 0x42, 0x7e, 0x35, 0x9c, 
0xf5, 0xff, 0x21, 0x9f, 0xeb, 0x20, 0xc0, 0xf1, 0x1f, 0x10, 0x41, 0xae, 0x97, 0xe2, 0x02, 0x00, 
0xc0, 0xa1, 0x75, 0x32, 0xa8, 0x09, 0x51, 0xe0, 0xdf, 0x39, 0x15, 0xc9, 0xc1, 0xae, 0x51, 0x31, 
0xf2, 0xff, 0xae, 0xb4, 0x52, 0x81, 0xb4, 0xc4, 0xfe, 0x3f, 0x00, 0xc8, 0x06, 0x00, 0xcc, 0xea, 
0x46, 0x9d, 0x52, 0x8a, 0xbe, 0x86, 0x4b, 0xea, 0x01, 0xf0, 0xc3, 0xd3, 0xeb, 0xb5, 0x16, 0xce, 
0xfe, 0xff, 0xdc, 0xc6, 0x4f, 0x56, 0xd1, 0x57, 0xff, 0xff, 0x09, 0xb2, 0x0a, 0x00, 0x11, 0x86, 
0x04, 0x00, 0xc5, 0x83, 0xbd, 0x6b, 0x48, 0x4b, 0x37, 0x71, 0x03, 0xa9, 0x20, 0xd6, 0x38, 0x41, 
0x5a, 0xf4, 0xff, 0x07, 0x4b, 0x51, 0xbc, 0xd5, 0x1c, 0x3b, 0xff, 0xff, 0x0f, 0x5d, 0x0d, 0x00, 
0x10, 0x10, 0x01, 0x08, 0x68, 0x14, 0x14, 0xc1, 0x87, 0x29, 0xc2, 0x58, 0x03, 0xfe, 0x85, 0xcb, 
0xda, 0x2d, 0x9f, 0xbe, 0x95, 0xfa, 0xfe, 0x3f, 0x28, 0x1c, 0x08, 0x02, 0x6d, 0x07, 0xfb, 0xff, 
0x01, 0xc0, 0xb8, 0x01, 0x00, 0x60, 0x9c, 0x00, 0x0f, 0x34, 0x76, 0xdf, 0x39, 0x79, 0x99, 0x71, 
0xd8, 0x5d, 0xfc, 0xff, 0x65, 0x3d, 0x2b, 0xf8, 0x23, 0xb2, 0xe2, 0x8b, 0xfe, 0xbf, 0xad, 0xad, 
0x53, 0x68, 0xe5, 0x01, 0xde, 0x1b, 0x00, 0x04, 0xef, 0x4a, 0x00, 0x58, 0xeb, 0x8c, 0x75, 0x48, 
0x28, 0x9b, 0xf3, 0xac, 0x22, 0x35, 0x28, 0xb8, 0xaa, 0xf2, 0xff, 0x43, 0xa1, 0x50, 0xe7, 0x8a, 
0xed, 0xff, 0x47, 0xcf, 0xe2, 0xf6, 0xbb, 0xac, 0xfb, 0x07, 0x00, 0xd4, 0x5f, 0xed, 0xeb, 0x0a, 
0x00, 0xb2, 0xba, 0xc1, 0xbf, 0x82, 0xed, 0xc2, 0x3f, 0xd7, 0x38, 0xc9, 0x69, 0x6c, 0x11, 0x25, 
0xfd, 0xbf, 0xf0, 0xf9, 0x5a, 0xd8, 0x3b, 0xff, 0x7f, 0x8f, 0x9f, 0xba, 0x95, 0x7d, 0x01, 0x13, 
0x00, 0xa2, 0x19, 0x00, 0xd0, 0xaa, 0x05, 0xf8, 0xf5, 0xf7, 0x10, 0x03, 0x5c, 0x87, 0xaf, 0xf1, 
0xf5, 0xff, 0xaa, 0xb4, 0xa4, 0x82, 0xe8, 0xff, 0x7f, 0x86, 0xef, 0xdc, 0x76, 0xa2, 0x7c, 0x80, 
0xbc, 0x03, 0x00, 0x90, 0x32, 0x06, 0x80, 0x1c, 0xcf, 0x85, 0x39, 0x24, 0xbe, 0x70, 0x4b, 0xd5, 
0xaf, 0xca, 0x9f, 0xae, 0xaa, 0xb7, 0x5a, 0xfd, 0xbf, 0x5e, 0x1d, 0xec, 0x2d, 0xf6, 0xff, 0x4f, 
0x3f, 0x09, 0xdd, 0xfe, 0xfc, 0x07, 0x20, 0x08, 0xbe, 0xaa, 0xfe, 0x00, 0x60, 0x95, 0x41, 0xb5, 
0xda, 0x46, 0x4c, 0xed, 0x3f, 0xf8, 0x1f, 0xf5, 0x1f, 0xe4, 0x3c, 0x68, 0xa7, 0xf5, 0xff, 0x85, 
0x36, 0x0b, 0xae, 0x7f, 0xfe, 0x7f, 0x1c, 0xbf, 0x6b, 0x81, 0x6a, 0x82, 0x00, 0x30, 0xb4, 0x00, 
0xe0, 0xf7, 0xd7, 0x62, 0x57, 0xbe, 0x96, 0xdf, 0x7c, 0x3f, 0xc0, 0x57, 0x41, 0x18, 0xd7, 0xeb, 
0xb2, 0xdb, 0xf4, 0xff, 0x9e, 0xd1, 0x52, 0x89, 0x1f, 0xa1, 0xff, 0x9f, 0x73, 0xbf, 0x4c, 0xf4, 
0x7e, 0x80, 0xac, 0x07, 0x00, 0x42, 0x74, 0x01, 0x00, 0xbc, 0x97, 0x39, 0xde, 0xb5, 0x88, 0xf5, 
0x4f, 0xff, 0xbf, 0x4c, 0xf0, 0x7c, 0x75, 0x29, 0xcc, 0xc4, 0xfe, 0x3f, 0xce, 0x38, 0x92, 0xc0, 
0xf1, 0x1f, 0xb8, 0x3f, 0x80, 0x02, 0xd8, 0x17, 0x00, 0x08, 0x17, 0x36, 0xd0, 0x44, 0x02, 0x21, 
0xcc, 0xe7, 0x17, 0xfe, 0xad, 0xb6, 0x50, 0xde, 0xfb, 0x77, 0xf4, 0x5d, 0xfb, 0x7f, 0xa3, 0x57, 
0xc8, 0x8b, 0xb3, 0xff, 0xff, 0x5b, 0x7d, 0x86, 0xca, 0xcc, 0x07, 0x00, 0xea, 0x05, 0x00, 0xd9, 
0x14, 0xa3, 0xe0, 0x01, 0x40, 0x5e, 0x12, 0x1c, 0xe0, 0x0d, 0xea, 0x76, 0x98, 0xf5, 0xc9, 0x92, 
0xcd, 0xff, 0x6f, 0xff, 0xff, 0x74, 0xb4, 0xc3, 0xaa, 0xe2, 0x01, 0x2c, 0x0e, 0x00, 0x2a, 0x21, 
0x12, 0x35, 0xa5, 0x04, 0x62, 0x45, 0x04, 0x80, 0x1f, 0xc0, 0x03, 0x33, 0xa8, 0x75, 0x67, 0xfe, 
0x16, 0xe5, 0xa7, 0xff, 0x4f, 0xfa, 0x67, 0x5e, 0x3e, 0xf1, 0xfd, 0x7f, 0x34, 0x42, 0xc2, 0x56, 
0x25, 0xfb, 0x07, 0x01, 0x60, 0xb5, 0x16, 0xb1, 0x00, 0xa0, 0x4e, 0x84, 0x87, 0xa1, 0x84, 0xe8, 
0x0b, 0xfe, 0xd7, 0x26, 0xc5, 0x43, 0x10, 0xa9, 0x85, 0xfe, 0x3f, 0x93, 0xb7, 0xc4, 0x1a, 0xfe, 
0x1f, 0x00, 0xee, 0x8f, 0x95, 0x40, 0x06, 0x00, 0x60, 0x9a, 0x21, 0x0e, 0x11, 0xb4, 0x74, 0x80, 
0x67, 0x36, 0xb9, 0x46, 0x93, 0x61, 0xbb, 0xaa, 0x3c, 0x42, 0xfc, 0xbf, 0xba, 0xa3, 0x1a, 0xc4, 
0x6a, 0xef, 0xff, 0x8b, 0xaf, 0x48, 0x13, 0x69, 0xc9, 0x47, 0x0f, 0x00, 0x01, 0x73, 0x19, 0xc6, 
0x7a, 0x00, 0x30, 0x21, 0x52, 0x7f, 0x09, 0x08, 0xd4, 0x50, 0xfc, 0x7f, 0x19, 0x46, 0x49, 0xc9, 
0xde, 0x0f, 0xff, 0xff, 0x83, 0xc4, 0x4c, 0x3b, 0x43, 0x66, 0xfc, 0x07, 0x00, 0x20, 0x56, 0x01, 
0x00, 0x3a, 0xa4, 0x44, 0xe6, 0x32, 0x1d, 0xfa, 0xca, 0x27, 0x24, 0x18, 0xf8, 0x47, 0x81, 0xa4, 
0x6a, 0x9c, 0xc6, 0x26, 0xff, 0xdf, 0x62, 0x46, 0xed, 0x3b, 0xeb, 0x0a, 0x02, 0xff, 0x0f, 0x00, 
0x3b, 0x00, 0x00, 0x48, 0x9d, 0x00, 0x1e, 0xaa, 0xfd, 0xe6, 0x31, 0x0c, 0x70, 0x60, 0xa3, 0xe2, 
0xff, 0xbb, 0x36, 0x10, 0x3b, 0xb0, 0x6b, 0x49, 0xe0, 0xff, 0x01, 0xec, 0x36, 0x1b, 0xf1, 0xfc, 
0x03, 0x50, 0x2a, 0x00, 0x04, 0x59, 0x03, 0x80, 0xb4, 0x3c, 0xe4, 0x92, 0x01, 0x48, 0x30, 0x9d, 
0x28, 0xff, 0x5f, 0x37, 0xd1, 0x61, 0x1d, 0xea, 0xeb, 0xff, 0x7b, 0xae, 0xaa, 0xfd, 0xb6, 0x96, 
0xf8, 0x07, 0x00, 0xa8, 0xbc, 0x23, 0x26, 0x03, 0x00, 0xed, 0x35, 0xc6, 0x3a, 0x1c, 0x04, 0x00, 
0x00, 0xf8, 0x63, 0x72, 0x41, 0x12, 0x1b, 0x02, 0x0c, 0x00, 0x50, 0x02, 0xe0, 0xc1, 0xc5, 0xff
};
