#include <stdint.h>

#include <stddef.h>

const size_t sub_0001_model_data_size = 1984;

__attribute__((aligned(16))) const uint8_t sub_0001_model_data[1984] = {
0x00, 0x00, 0x00, 0x00, 0x00, 0x00, 0x00, 0x00, 0x00, 0x00, 0x00, 0x00, 0x00, 0x00, 0x00, 0x00, 
0x00, 0x00, 0x00, 0x00, 0x00, 0x00, 0x00, 0x00, 0x00, 0x00, 0x00, 0x00, 0x00, 0x00, 0x00, 0x00, 
0x00, 0x00, 0x00, 0x00, 0x00, 0x00, 0x00, 0x00, 0x00, 0x00, 0x00, 0x00, 0x00, 0x00, 0x00, 0x00, 
0x00, 0x00, 0x00, 0x00, 0x00, 0x00, 0x00, 0x00, 0x00, 0x00, 0x00, 0x00, 0x00, 0x00, 0x00, 0x00, 
0x00, 0x00, 0x00, 0x00, 0x00, 0x00, 0x00, 0x00, 0x00, 0x00, 0x00, 0x00, 0x00, 0x00, 0x00, 0x00, 
0x00, 0x00, 0x00, 0x00, 0x00, 0x00, 0x00, 0x00, 0x00, 0x00, 0x00, 0x00, 0x00, 0x00, 0x00, 0x00, 
0x00, 0x00, 0x00, 0x00, 0x00, 0x00, 0x00, 0x00, 0x00, 0x00, 0x00, 0x00, 0x00, 0x00, 0x00, 0x00, 
0x00, 0x00, 0x00, 0x00, 0x00, 0x00, 0x00, 0x00, 0x00, 0x00, 0x00, 0x00, 0x00, 0x00, 0x00, 0x00, 
0x00, 0x00, 0x00, 0x00, 0x00, 0x00, 0x00, 0x00, 0x00, 0x00, 0x00, 0x00, 0x00, 0x00, 0x00, 0x00, 
0x00, 0x00, 0x00, 0x00, 0x00, 0x00, 0x00, 0x00, 0x00, 0x00, 0x00, 0x00, 0x00, 0x00, 0x00, 0x00, 
0x00, 0x00, 0x00, 0x00, 0x00, 0x00, 0x00, 0x00, 0x00, 0x00, 0x00, 0x00, 0x00, 0x00, 0x00, 0x00, 
0x00, 0x00, 0x00, 0x00, 0x00, 0x00, 0x00, 0x00, 0x00, 0x00, 0x00, 0x00, 0x00, 0x00, 0x00, 0x00, 
0x00, 0x00, 0x00, 0x00, 0x00, 0x00, 0x00, 0x00, 0x00, 0x00, 0x00, 0x00, 0x00, 0x00, 0x00, 0x00, 
0x00, 0x00, 0x00, 0x00, 0x00, 0x00, 0x00, 0x00, 0x00, 0x00, 0x00, 0x00, 0x00, 0x00, 0x00, 0x00, 
0x00, 0x00, 0x00, 0x00, 0x00, 0x00, 0x00, 0x00, 0x00, 0x00, 0x00, 0x00, 0x00, 0x00, 0x00, 0x00, 
0x2c, 0x8f, 0xff, 0xff, 0xff, 0x43, 0xb1, 0xfa, 0x47, 0x27, 0x1a, 0xc2, 0xff, 0xff, 0xff, 0xd2, 
0xc3, 0x1c, 0x73, 0x27, 0x44, 0x5a, 0x00, 0x00, 0x00, 0x81, 0xa8, 0x6a, 0x6f, 0x27, 0xa9, 0xa8, 
0xff, 0xff, 0xff, 0x20, 0x56, 0xd1, 0x6e, 0x27, 0x31, 0x7b, 0xff, 0xff, 0xff, 0x46, 0x05, 0x2f, 
0x42, 0x27, 0x79, 0x1d, 0x00, 0x00, 0x00, 0x9c, 0xad, 0x1f, 0x6b, 0x27, 0x07, 0x02, 0x00, 0x00, 
0x00, 0x17, 0x06, 0x42, 0x79, 0x26, 0x73, 0x79, 0x00, 0x00, 0x00, 0xe7, 0xfc, 0x57, 0x7a, 0x28, 
0x32, 0x02, 0x54, 0xf3, 0xed, 0xff, 0x7f, 0x3f, 0x1a, 0x7a, 0xe7, 0xc3, 0xa3, 0x83, 0x3f, 0xbf, 
0xae, 0x8e, 0x0e, 0xbe, 0x5d, 0x1d, 0xad, 0x8c, 0x4c, 0x0c, 0x1c, 0xcb, 0xaa, 0x8a, 0x6a, 0x2a, 
0x9a, 0x39, 0x19, 0x09, 0x19, 0x1a, 0xaa, 0xfa, 0x63, 0xa8, 0xaa, 0x7d, 0x9e, 0x22, 0x5c, 0x4d, 
0x84, 0xff, 0xcf, 0x47, 0x55, 0x53, 0x40, 0xde, 0xec, 0x04, 0x45, 0xfe, 0xdf, 0x06, 0x54, 0xf5, 
0x4a, 0x83, 0xc8, 0x5e, 0xd0, 0xef, 0xff, 0xab, 0x2a, 0x48, 0x0f, 0x8c, 0x45, 0xc1, 0xf9, 0xff, 
0x31, 0x50, 0xd5, 0xfa, 0x7f, 0x55, 0x0d, 0x12, 0x57, 0x6a, 0x5e, 0xf1, 0xe6, 0xff, 0x3d, 0x4e, 
0x55, 0x3b, 0xff, 0x6f, 0x8b, 0xaa, 0x7a, 0x0f, 0xb3, 0x5d, 0x13, 0x1e, 0xfc, 0x3f, 0x4f, 0xab, 
0x6a, 0x49, 0x4b, 0x18, 0x15, 0x17, 0xff, 0xaf, 0xaa, 0x00, 0xb1, 0x15, 0x66, 0x02, 0xf1, 0xff, 
0x05, 0x40, 0x55, 0xfc, 0xff, 0x37, 0xe0, 0xff, 0x07, 0x00, 0x28, 0x00, 0xf0, 0xff, 0x6f, 0xff, 
0x01, 0xfe, 0xff, 0xff, 0xff, 0xff, 0xff, 0xff, 0xff, 0xff, 0xff, 0xff, 0xff, 0xff, 0xff, 0xff, 
0x94, 0x2d, 0x00, 0x00, 0x00, 0x7e, 0x30, 0x4b, 0x4d, 0x27, 0xdb, 0xf2, 0xff, 0xff, 0xff, 0x5d, 
0x98, 0xc4, 0x4d, 0x27, 0x48, 0x27, 0x00, 0x00, 0x00, 0x46, 0x91, 0x77, 0x70, 0x27, 0xa2, 0x02, 
0x00, 0x00, 0x00, 0xbc, 0xea, 0x59, 0x42, 0x26, 0x01, 0xf6, 0xff, 0xff, 0xff, 0x24, 0xcc, 0xfc, 
0x51, 0x26, 0xb5, 0xfb, 0xff, 0xff, 0xff, 0x71, 0xba, 0x55, 0x70, 0x27, 0xc7, 0xf3, 0xff, 0xff, 
0xff, 0xbe, 0x00, 0x6d, 0x6b, 0x28, 0x45, 0x0d, 0x00, 0x00, 0x00, 0x07, 0xe4, 0xec, 0x72, 0x28, 
0x69, 0xee, 0xff, 0xff, 0xff, 0x34, 0xd7, 0xbd, 0x45, 0x26, 0xa0, 0xf0, 0xff, 0xff, 0xff, 0x41, 
0x47, 0x7b, 0x61, 0x26, 0xfd, 0xed, 0xff, 0xff, 0xff, 0x43, 0x71, 0x8b, 0x7e, 0x27, 0x32, 0xf1, 
0xff, 0xff, 0xff, 0xfc, 0xc0, 0xb2, 0x42, 0x27, 0xbf, 0xf6, 0xff, 0xff, 0xff, 0x6e, 0xe7, 0xfd, 
0x6e, 0x27, 0xe0, 0x05, 0x00, 0x00, 0x00, 0x0b, 0xc0, 0x9d, 0x6f, 0x28, 0x1b, 0xeb, 0xff, 0xff, 
0xff, 0xe2, 0xe2, 0x1f, 0x75, 0x27, 0xab, 0xef, 0xff, 0xff, 0xff, 0x61, 0x6d, 0x18, 0x48, 0x26, 
0xf0, 0x11, 0xdc, 0x01, 0x0c, 0x00, 0x6f, 0x75, 0x34, 0x11, 0x12, 0x40, 0x2d, 0x9b, 0x00, 0xb0, 
0x87, 0xa1, 0x68, 0xb5, 0x29, 0x36, 0x6d, 0x06, 0x00, 0xae, 0xbe, 0x68, 0xe2, 0x39, 0xc9, 0x05, 
0x40, 0x27, 0x3f, 0x18, 0x9c, 0x07, 0x56, 0x94, 0x09, 0x00, 0x80, 0x66, 0x07, 0x44, 0xe6, 0xd5, 
0x46, 0xf5, 0x0a, 0x00, 0xcd, 0x2d, 0x51, 0x87, 0x73, 0xbd, 0x1a, 0x98, 0xd5, 0xda, 0xa3, 0x39, 
0x32, 0xe7, 0x9e, 0x78, 0x00, 0xb0, 0xe0, 0x2c, 0xa9, 0xe0, 0x70, 0x5c, 0xed, 0x06, 0x00, 0x4e, 
0xc0, 0xbe, 0x2f, 0x68, 0xa7, 0x38, 0xb1, 0x63, 0x54, 0x62, 0x93, 0xd9, 0xbd, 0x9f, 0xb0, 0x00, 
0xc0, 0x8f, 0xde, 0x74, 0xd5, 0xba, 0x8c, 0x05, 0x0c, 0x00, 0x1c, 0xb7, 0x00, 0x9e, 0x6d, 0xb7, 
0x2b, 0x47, 0x01, 0x69, 0x6e, 0x26, 0x67, 0x64, 0xd0, 0x3c, 0x00, 0x40, 0x78, 0xe3, 0x79, 0x8b, 
0x55, 0x02, 0xc4, 0x04, 0x00, 0xe6, 0x45, 0x0a, 0xd5, 0x75, 0x07, 0xfc, 0x95, 0x37, 0x9b, 0x28, 
0x27, 0x90, 0x36, 0x73, 0xd3, 0x00, 0x10, 0x27, 0xc8, 0x40, 0xae, 0x91, 0x72, 0x86, 0x0d, 0x00, 
0x39, 0xd7, 0xc0, 0x73, 0x22, 0x4d, 0xc4, 0x9d, 0xc2, 0xd8, 0x38, 0xb0, 0x36, 0x2a, 0x42, 0xde, 
0x00, 0x00, 0x13, 0xa7, 0x48, 0x42, 0x45, 0x95, 0x9a, 0x03, 0x00, 0x92, 0xd3, 0xab, 0xab, 0x2e, 
0x52, 0x22, 0x29, 0xb6, 0x35, 0x53, 0x1e, 0x8a, 0x2f, 0x14, 0x44, 0x00, 0xd1, 0x5b, 0xc3, 0xdd, 
0x80, 0x43, 0x2d, 0x4a, 0x0d, 0x00, 0x75, 0x2f, 0xbd, 0x9e, 0x46, 0xf4, 0x29, 0xa8, 0xcb, 0xa6, 
0x9a, 0xa4, 0x92, 0xc8, 0x3d, 0x76, 0x00, 0xd0, 0x55, 0xf6, 0xa5, 0xd3, 0x02, 0x28, 0x13, 0x08, 
0x00, 0x79, 0x81, 0x51, 0x1c, 0xcc, 0x30, 0x73, 0x2e, 0x78, 0x2a, 0xb5, 0x0f, 0x64, 0x21, 0x37, 
0x44, 0x00, 0xd0, 0xd1, 0x37, 0x21, 0xb4, 0xb1, 0x87, 0x71, 0x0b, 0x00, 0x28, 0x76, 0x86, 0x19, 
0x37, 0x50, 0x25, 0x01, 0x5b, 0x0b, 0x9f, 0x92, 0xa2, 0x3d, 0x27, 0xd3, 0x00, 0x00, 0x39, 0xee, 
0xb4, 0x45, 0x2b, 0x79, 0x41, 0x07, 0x00, 0x54, 0xce, 0x56, 0xaa, 0xbb, 0xbb, 0x5c, 0xfb, 0x5c, 
0xb3, 0x20, 0x07, 0x60, 0x0b, 0x01, 0x3d, 0x00, 0x00, 0x26, 0x36, 0x63, 0xb5, 0x40, 0x6c, 0x05, 
0x08, 0x00, 0x49, 0x67, 0x15, 0x05, 0x25, 0x50, 0x94, 0x4d, 0xc3, 0x57, 0x2d, 0xfb, 0x24, 0xad, 
0x2d, 0xa9, 0x00, 0xb0, 0xad, 0xbb, 0x06, 0xf9, 0x71, 0x24, 0x0c, 0x02, 0x00, 0x37, 0xa2, 0x9b, 
0x6b, 0xac, 0xb1, 0xe7, 0xba, 0x67, 0x9f, 0xe1, 0xe8, 0x5a, 0x2f, 0xa1, 0x4d, 0x00, 0xc0, 0xe3, 
0xf8, 0xc1, 0x68, 0x21, 0xea, 0x50, 0x03, 0x00, 0x6e, 0xf0, 0x4a, 0x18, 0x58, 0xf7, 0xc2, 0x9d, 
0x1b, 0xbc, 0x7d, 0xd2, 0x59, 0xc7, 0x72, 0xcf, 0x00, 0x10, 0xdd, 0x06, 0x29, 0xb1, 0xb5, 0x4f, 
0x7a, 0x0a, 0x00, 0xc2, 0x6c, 0x12, 0x6f, 0x6c, 0x1f, 0x1e, 0xba, 0x2b, 0x7a, 0x80, 0xa8, 0x11, 
0xd9, 0x5f, 0xa9, 0x00, 0xd0, 0x75, 0x5d, 0x5b, 0xe2, 0xad, 0x75, 0xf3, 0x01, 0x00, 0xfc, 0x78, 
0x16, 0x5f, 0xaa, 0x4c, 0x38, 0x39, 0xdc, 0xdc, 0xba, 0x4a, 0x36, 0x16, 0xbc, 0x0b, 0x00, 0x70, 
0xd1, 0x52, 0x30, 0x82, 0x9d, 0x13, 0x1b, 0x06, 0x00, 0x9a, 0x0a, 0xb4, 0x55, 0xb4, 0x91, 0x1b, 
0x3c, 0x5d, 0x84, 0x7e, 0x50, 0x65, 0x22, 0x00, 0xe9, 0x00, 0xa0, 0xe3, 0xcb, 0xbb, 0x3c, 0xc9, 
0xb3, 0x86, 0x00, 0x00, 0x70, 0xd5, 0xb6, 0x6d, 0x03, 0xf3, 0x80, 0x0e, 0x7a, 0x74, 0x4c, 0x77, 
0x6c, 0x66, 0x63, 0x80, 0x00, 0xe0, 0xc4, 0x69, 0x61, 0xaa, 0x64, 0xa0, 0x09, 0x04, 0x00, 0x7e, 
0xaa, 0x6e, 0xbc, 0xd4, 0x1f, 0xc5, 0xe4, 0x9b, 0x63, 0x34, 0x33, 0x5a, 0x34, 0xc3, 0x1b, 0x00, 
0x20, 0xa5, 0x56, 0xe7, 0x2e, 0xc3, 0x63, 0xb3, 0x00, 0x00, 0x6f, 0xd0, 0x41, 0xb6, 0x6f, 0x64, 
0xa9, 0xc0, 0x85, 0x1f, 0xb6, 0x54, 0xe5, 0xab, 0x42, 0xe6, 0x00, 0x60, 0x30, 0x8c, 0x63, 0x13, 
0x58, 0x8a, 0x96, 0x08, 0x00, 0x3e, 0x1b, 0x60, 0xeb, 0xcc, 0x71, 0x66, 0xce, 0x3c, 0xdf, 0xca, 
0x82, 0x2f, 0x4a, 0x30, 0x7f, 0x00, 0x30, 0xb4, 0xad, 0x79, 0xcb, 0xff, 0x86, 0x3b, 0x05, 0x00, 
0x24, 0x0b, 0x5e, 0xf0, 0x2f, 0x6d, 0x55, 0x0c, 0xae, 0x3e, 0x7c, 0x6b, 0x78, 0x2c, 0x38, 0x4a, 
0x00, 0x10, 0xcd, 0x08, 0x89, 0x7a, 0xe7, 0xf7, 0xd6, 0x0b, 0x00, 0x34, 0x57, 0x50, 0x3e, 0x55, 
0x92, 0x83, 0xac, 0x49, 0xbb, 0x47, 0xcf, 0xfb, 0x74, 0x9a, 0xad, 0x00, 0xf0, 0x2e, 0x90, 0x96, 
0x49, 0x0b, 0x39, 0x92, 0xf0, 0xff, 0xc6, 0x57, 0x66, 0x73, 0xd4, 0xdf, 0xb1, 0xff, 0xff, 0xff, 
0xff, 0xff, 0xff, 0xff, 0xff, 0xff, 0xff, 0xff, 0xff, 0xff, 0xff, 0xff, 0xff, 0xff, 0xff, 0xff, 
0xff, 0xff, 0xff, 0x0f, 0x00, 0x03, 0x00, 0x1c, 0x00, 0x50, 0x80, 0x47, 0x70, 0x00, 0x00, 0x98, 
0x51, 0x29, 0x97, 0x76, 0x7f, 0xd9, 0x15, 0x00, 0x4a, 0x86, 0x8e, 0x15, 0x33, 0x02, 0x55, 0x59, 
0x00, 0x20, 0x0f, 0xf4, 0x20, 0xec, 0x7a, 0x7e, 0xa5, 0x33, 0xbb, 0xb4, 0xe1, 0x79, 0x28, 0x1b, 
0x48, 0x14, 0x00, 0x50, 0xea, 0x00, 0xa4, 0x19, 0x79, 0x18, 0xad, 0x01, 0x40, 0x6c, 0xa4, 0x0a, 
0x62, 0x10, 0x0e, 0x55, 0x38, 0x97, 0xac, 0xae, 0xb0, 0x19, 0xaa, 0x83, 0x13, 0x00, 0x52, 0xac, 
0xa7, 0xa1, 0xae, 0x42, 0x83, 0x4f, 0x00, 0x00, 0x04, 0xc1, 0x3a, 0xb7, 0x2b, 0x1d, 0x29, 0xf1, 
0x26, 0x48, 0xeb, 0xfa, 0xa4, 0xca, 0x0d, 0x15, 0x00, 0xe6, 0x28, 0x75, 0xa5, 0x9b, 0xba, 0x05, 
0x4a, 0x00, 0x60, 0xb8, 0xad, 0x28, 0x90, 0x8e, 0x09, 0x73, 0xef, 0x1a, 0x85, 0x8a, 0xe1, 0xf8, 
0x0c, 0x4d, 0x0c, 0x00, 0xfe, 0x02, 0x5a, 0xac, 0x00, 0xbf, 0x62, 0xaa, 0x00, 0x00, 0x0e, 0x9b, 
0x6a, 0x8b, 0x15, 0x35, 0x7d, 0x3d, 0xdb, 0x7b, 0x9a, 0xa3, 0xd3, 0x22, 0xc2, 0x1e, 0x10, 0xaa, 
0x5e, 0xa9, 0x08, 0x6b, 0xb2, 0x82, 0xf6, 0x00, 0xe0, 0x55, 0x08, 0xe5, 0x8a, 0x48, 0xe1, 0x47, 
0xc4, 0x86, 0x8c, 0x90, 0x68, 0x88, 0xf7, 0xd6, 0x02, 0x00, 0x54, 0xda, 0xf6, 0x3b, 0x40, 0x5d, 
0x1c, 0x17, 0x00, 0x60, 0xa9, 0x54, 0xd4, 0x47, 0x70, 0xc6, 0xd6, 0x88, 0xd3, 0x8a, 0x64, 0xd5, 
0xea, 0x77, 0x77, 0x1f, 0x00, 0xd4, 0x44, 0xa5, 0x71, 0x6f, 0x43, 0xcd, 0x3e, 0x01, 0xe0, 0x45, 
0x0f, 0xc4, 0x96, 0x91, 0x32, 0xaf, 0x7b, 0x2b, 0xaa, 0x9a, 0x16, 0xf5, 0x32, 0x58, 0x0e, 0x00, 
0x10, 0x80, 0xba, 0x42, 0xf6, 0xf9, 0x22, 0x43, 0x01, 0x40, 0x00, 0x12, 0x18, 0x59, 0x97, 0xc4, 
0xc1, 0x55, 0xcd, 0x99, 0x68, 0x5b, 0x92, 0xc8, 0x0b, 0x13, 0x00, 0x40, 0xd6, 0x7f, 0x38, 0x50, 
0x5e, 0x48, 0xcd, 0x00, 0x20, 0xbb, 0xd9, 0xb9, 0x92, 0xa1, 0x1a, 0x80, 0xe7, 0xf7, 0x61, 0xfa, 
0x61, 0x0b, 0x98, 0xe0, 0x13, 0x00, 0xc0, 0x9c, 0xb7, 0xd7, 0xea, 0xde, 0xaa, 0xfa, 0x00, 0xc0, 
0x2c, 0xbc, 0xf0, 0x46, 0xc4, 0x8f, 0x51, 0xad, 0x17, 0x8f, 0xce, 0x85, 0x66, 0xfb, 0xf9, 0x14, 
0x00, 0xe6, 0xea, 0x78, 0xaa, 0xae, 0xab, 0xff, 0x7e, 0x00, 0x00, 0xe5, 0x44, 0x01, 0x06, 0x49, 
0x23, 0xf9, 0x21, 0x69, 0x3f, 0xcf, 0xc0, 0x69, 0x2f, 0x8e, 0x1f, 0x00, 0x3a, 0x60, 0x84, 0x4b, 
0xb9, 0x17, 0x45, 0x3b, 0x01, 0x40, 0xc5, 0x11, 0xc7, 0xc5, 0x31, 0xda, 0x37, 0x07, 0x05, 0x98, 
0x6b, 0xf3, 0x6f, 0xa2, 0x80, 0x15, 0x00, 0xea, 0x46, 0xd8, 0x14, 0x34, 0x34, 0x15, 0x13, 0x01, 
0xc0, 0x4e, 0x97, 0x69, 0x2d, 0x98, 0x42, 0x10, 0x85, 0xd0, 0x90, 0xc7, 0xcb, 0x2d, 0xe7, 0x2f, 
0x04, 0x00, 0x98, 0x16, 0xe6, 0x58, 0xf8, 0x40, 0xcf, 0x98, 0x01, 0xe0, 0x6f, 0x8a, 0x46, 0x43, 
0xcd, 0xd2, 0x04, 0xa1, 0x8a, 0xb1, 0x71, 0x53, 0x89, 0xad, 0xb4, 0x01, 0x00, 0x8e, 0x9a, 0xd5, 
0x4b, 0xea, 0x13, 0x84, 0x6a, 0x01, 0xc0, 0x84, 0x4b, 0x13, 0x51, 0x2a, 0x29, 0x2c, 0x16, 0xa2, 
0x1c, 0xed, 0xcd, 0xca, 0xa7, 0x10, 0x11, 0x00, 0x06, 0x02, 0x19, 0x72, 0x06, 0xb7, 0xa4, 0x8a, 
0x01, 0x20, 0x2f, 0x60, 0xa7, 0x11, 0x2c, 0xe1, 0xc6, 0x64, 0x57, 0x90, 0xa1, 0x0e, 0xf3, 0x25, 
0x52, 0x06, 0x00, 0xd2, 0x6c, 0x10, 0x80, 0xa1, 0xa6, 0xde, 0xa2, 0x01, 0x00, 0x08, 0xef, 0xf9, 
0xd3, 0x4f, 0x7c, 0x2b, 0x85, 0x87, 0xbd, 0x9a, 0xf5, 0xee, 0xa7, 0xc0, 0x01, 0x00, 0x3e, 0xd8, 
0xaa, 0xf6, 0x4b, 0x63, 0x38, 0x80, 0x00, 0x60, 0xfc, 0xc2, 0x39, 0x2f, 0x70, 0xf8, 0x58, 0xb1, 
0x2b, 0x4a, 0xc2, 0x8b, 0xd4, 0x37, 0x25, 0x0b, 0x00, 0xcc, 0x56, 0x44, 0x52, 0xf7, 0x7d, 0x4a, 
0x19, 0x00, 0x60, 0x0e, 0x94, 0x42, 0xec, 0xca, 0x12, 0x5c, 0x47, 0x67, 0x2e, 0x2d, 0xca, 0x26, 
0x0f, 0x30, 0x0d, 0x00, 0xa0, 0xda, 0xcf, 0x37, 0xb4, 0xc2, 0x0e, 0x91, 0x00, 0x60, 0x79, 0xcd, 
0xae, 0xe4, 0x2a, 0x10, 0x42, 0x63, 0x0d, 0xc1, 0x20, 0x9b, 0xb0, 0xb1, 0xcf, 0x08, 0x00, 0x58, 
0xff, 0x66, 0xc0, 0x67, 0x54, 0x1f, 0x0f, 0x01, 0x40, 0x0f, 0xd5, 0xce, 0xb5, 0xf5, 0x2f, 0xea, 
0xfb, 0xd4, 0x6d, 0x70, 0x71, 0x9d, 0xe8, 0x73, 0x06, 0x00, 0x82, 0xb3, 0x55, 0x51, 0x32, 0x18, 
0xa9, 0x63, 0x01, 0x60, 0xbe, 0xd7, 0xc7, 0xe8, 0xe4, 0x31, 0x45, 0x30, 0xa9, 0x80, 0x74, 0x11, 
0x74, 0x12, 0xb7, 0x06, 0x00, 0x2e, 0xeb, 0x39, 0x98, 0x28, 0x1b, 0x07, 0x2a, 0x68, 0x18, 0x8e, 
0x87, 0xf6, 0x07, 0x00, 0x38, 0xff, 0xff, 0x72, 0xff, 0x00, 0xf8, 0xff, 0xff, 0xff, 0xff, 0xff
};
